// Auto-generated TFLite model array
// Size: 12904 bytes (12.60 KB)
// Classes: EAT, HELLO

#include "ml/asl_model_data.h"

// Model data
alignas(8) const unsigned char g_asl_model_data[] = {
  0x20, 0x00, 0x00, 0x00, 0x54, 0x46, 0x4c, 0x33, 0x00, 0x00, 0x00, 0x00,
  0x14, 0x00, 0x20, 0x00, 0x1c, 0x00, 0x18, 0x00, 0x14, 0x00, 0x10, 0x00,
  0x0c, 0x00, 0x00, 0x00, 0x08, 0x00, 0x04, 0x00, 0x14, 0x00, 0x00, 0x00,
  0x1c, 0x00, 0x00, 0x00, 0x8c, 0x00, 0x00, 0x00, 0x0c, 0x01, 0x00, 0x00,
  0xe8, 0x11, 0x00, 0x00, 0xf8, 0x11, 0x00, 0x00, 0x5c, 0x31, 0x00, 0x00,
  0x03, 0x00, 0x00, 0x00, 0x01, 0x00, 0x00, 0x00, 0x04, 0x00, 0x00, 0x00,
  0x5e, 0xea, 0xff, 0xff, 0x0c, 0x00, 0x00, 0x00, 0x1c, 0x00, 0x00, 0x00,
  0x3c, 0x00, 0x00, 0x00, 0x0f, 0x00, 0x00, 0x00, 0x73, 0x65, 0x72, 0x76,
  0x69, 0x6e, 0x67, 0x5f, 0x64, 0x65, 0x66, 0x61, 0x75, 0x6c, 0x74, 0x00,
  0x01, 0x00, 0x00, 0x00, 0x04, 0x00, 0x00, 0x00, 0x68, 0xff, 0xff, 0xff,
  0x26, 0x00, 0x00, 0x00, 0x04, 0x00, 0x00, 0x00, 0x08, 0x00, 0x00, 0x00,
  0x6f, 0x75, 0x74, 0x70, 0x75, 0x74, 0x5f, 0x30, 0x00, 0x00, 0x00, 0x00,
  0x01, 0x00, 0x00, 0x00, 0x04, 0x00, 0x00, 0x00, 0xc6, 0xed, 0xff, 0xff,
  0x04, 0x00, 0x00, 0x00, 0x0c, 0x00, 0x00, 0x00, 0x73, 0x65, 0x6e, 0x73,
  0x6f, 0x72, 0x5f, 0x69, 0x6e, 0x70, 0x75, 0x74, 0x00, 0x00, 0x00, 0x00,
  0x03, 0x00, 0x00, 0x00, 0x5c, 0x00, 0x00, 0x00, 0x2c, 0x00, 0x00, 0x00,
  0x04, 0x00, 0x00, 0x00, 0xb8, 0xff, 0xff, 0xff, 0x2a, 0x00, 0x00, 0x00,
  0x04, 0x00, 0x00, 0x00, 0x13, 0x00, 0x00, 0x00, 0x43, 0x4f, 0x4e, 0x56,
  0x45, 0x52, 0x53, 0x49, 0x4f, 0x4e, 0x5f, 0x4d, 0x45, 0x54, 0x41, 0x44,
  0x41, 0x54, 0x41, 0x00, 0xdc, 0xff, 0xff, 0xff, 0x29, 0x00, 0x00, 0x00,
  0x04, 0x00, 0x00, 0x00, 0x13, 0x00, 0x00, 0x00, 0x6d, 0x69, 0x6e, 0x5f,
  0x72, 0x75, 0x6e, 0x74, 0x69, 0x6d, 0x65, 0x5f, 0x76, 0x65, 0x72, 0x73,
  0x69, 0x6f, 0x6e, 0x00, 0x08, 0x00, 0x0c, 0x00, 0x08, 0x00, 0x04, 0x00,
  0x08, 0x00, 0x00, 0x00, 0x28, 0x00, 0x00, 0x00, 0x04, 0x00, 0x00, 0x00,
  0x13, 0x00, 0x00, 0x00, 0x6d, 0x69, 0x6e, 0x5f, 0x72, 0x75, 0x6e, 0x74,
  0x69, 0x6d, 0x65, 0x5f, 0x76, 0x65, 0x72, 0x73, 0x69, 0x6f, 0x6e, 0x00,
  0x2b, 0x00, 0x00, 0x00, 0xd8, 0x10, 0x00, 0x00, 0xd0, 0x10, 0x00, 0x00,
  0xbc, 0x10, 0x00, 0x00, 0xa0, 0x10, 0x00, 0x00, 0x8c, 0x10, 0x00, 0x00,
  0x70, 0x10, 0x00, 0x00, 0x54, 0x10, 0x00, 0x00, 0x3c, 0x10, 0x00, 0x00,
  0xec, 0x0f, 0x00, 0x00, 0x5c, 0x0f, 0x00, 0x00, 0x4c, 0x0b, 0x00, 0x00,
  0x1c, 0x0b, 0x00, 0x00, 0xec, 0x0a, 0x00, 0x00, 0xbc, 0x0a, 0x00, 0x00,
  0x2c, 0x0a, 0x00, 0x00, 0x1c, 0x04, 0x00, 0x00, 0xfc, 0x03, 0x00, 0x00,
  0xdc, 0x03, 0x00, 0x00, 0xbc, 0x03, 0x00, 0x00, 0x6c, 0x03, 0x00, 0x00,
  0x4c, 0x01, 0x00, 0x00, 0x44, 0x01, 0x00, 0x00, 0x3c, 0x01, 0x00, 0x00,
  0x34, 0x01, 0x00, 0x00, 0x2c, 0x01, 0x00, 0x00, 0x24, 0x01, 0x00, 0x00,
  0x1c, 0x01, 0x00, 0x00, 0x14, 0x01, 0x00, 0x00, 0x0c, 0x01, 0x00, 0x00,
  0x04, 0x01, 0x00, 0x00, 0xfc, 0x00, 0x00, 0x00, 0xf4, 0x00, 0x00, 0x00,
  0xec, 0x00, 0x00, 0x00, 0xe4, 0x00, 0x00, 0x00, 0xdc, 0x00, 0x00, 0x00,
  0xd4, 0x00, 0x00, 0x00, 0xcc, 0x00, 0x00, 0x00, 0xc4, 0x00, 0x00, 0x00,
  0xbc, 0x00, 0x00, 0x00, 0xb4, 0x00, 0x00, 0x00, 0x94, 0x00, 0x00, 0x00,
  0x74, 0x00, 0x00, 0x00, 0x04, 0x00, 0x00, 0x00, 0x16, 0xef, 0xff, 0xff,
  0x04, 0x00, 0x00, 0x00, 0x60, 0x00, 0x00, 0x00, 0x0c, 0x00, 0x00, 0x00,
  0x08, 0x00, 0x0e, 0x00, 0x08, 0x00, 0x04, 0x00, 0x08, 0x00, 0x00, 0x00,
  0x10, 0x00, 0x00, 0x00, 0x28, 0x00, 0x00, 0x00, 0x00, 0x00, 0x06, 0x00,
  0x08, 0x00, 0x04, 0x00, 0x06, 0x00, 0x00, 0x00, 0x04, 0x00, 0x00, 0x00,
  0x01, 0x00, 0x00, 0x00, 0xeb, 0x03, 0x00, 0x00, 0x0c, 0x00, 0x18, 0x00,
  0x14, 0x00, 0x10, 0x00, 0x0c, 0x00, 0x04, 0x00, 0x0c, 0x00, 0x00, 0x00,
  0xb7, 0xfe, 0x73, 0x0c, 0xa5, 0x7b, 0x4f, 0x0a, 0x02, 0x00, 0x00, 0x00,
  0x02, 0x00, 0x00, 0x00, 0x04, 0x00, 0x00, 0x00, 0x06, 0x00, 0x00, 0x00,
  0x32, 0x2e, 0x31, 0x38, 0x2e, 0x30, 0x00, 0x00, 0x82, 0xef, 0xff, 0xff,
  0x04, 0x00, 0x00, 0x00, 0x10, 0x00, 0x00, 0x00, 0x00, 0x00, 0x00, 0x00,
  0x00, 0x00, 0x00, 0x00, 0x00, 0x00, 0x00, 0x00, 0x00, 0x00, 0x00, 0x00,
  0x9e, 0xef, 0xff, 0xff, 0x04, 0x00, 0x00, 0x00, 0x10, 0x00, 0x00, 0x00,
  0x31, 0x2e, 0x31, 0x34, 0x2e, 0x30, 0x00, 0x00, 0x00, 0x00, 0x00, 0x00,
  0x00, 0x00, 0x00, 0x00, 0xc0, 0xd1, 0xff, 0xff, 0xc4, 0xd1, 0xff, 0xff,
  0xc8, 0xd1, 0xff, 0xff, 0xcc, 0xd1, 0xff, 0xff, 0xd0, 0xd1, 0xff, 0xff,
  0xd4, 0xd1, 0xff, 0xff, 0xd8, 0xd1, 0xff, 0xff, 0xdc, 0xd1, 0xff, 0xff,
  0xe0, 0xd1, 0xff, 0xff, 0xe4, 0xd1, 0xff, 0xff, 0xe8, 0xd1, 0xff, 0xff,
  0xec, 0xd1, 0xff, 0xff, 0xf0, 0xd1, 0xff, 0xff, 0xf4, 0xd1, 0xff, 0xff,
  0xf8, 0xd1, 0xff, 0xff, 0xfc, 0xd1, 0xff, 0xff, 0x00, 0xd2, 0xff, 0xff,
  0x04, 0xd2, 0xff, 0xff, 0x08, 0xd2, 0xff, 0xff, 0x06, 0xf0, 0xff, 0xff,
  0x04, 0x00, 0x00, 0x00, 0x10, 0x02, 0x00, 0x00, 0x03, 0x03, 0x01, 0x04,
  0xff, 0x0a, 0x9d, 0xdf, 0xbe, 0xa4, 0x9e, 0x04, 0x04, 0x08, 0x05, 0xff,
  0x35, 0xa2, 0xc8, 0x06, 0xca, 0xf0, 0x02, 0x03, 0x08, 0x04, 0xff, 0x1b,
  0xea, 0x81, 0xb7, 0x0a, 0x57, 0xff, 0x04, 0xc4, 0x12, 0x0c, 0x17, 0xff,
  0xd8, 0x14, 0x4c, 0xba, 0xf6, 0xe4, 0xd3, 0xd3, 0x0d, 0x4b, 0xa0, 0x3d,
  0x10, 0xa6, 0x81, 0xd0, 0x09, 0xcb, 0xc9, 0x0b, 0x94, 0x21, 0xfa, 0x2c,
  0xb5, 0xc0, 0xb3, 0xfe, 0xca, 0x08, 0x23, 0x59, 0xdb, 0xd6, 0xe4, 0x81,
  0x26, 0xfb, 0xf6, 0xd4, 0xbc, 0x12, 0x36, 0xee, 0x57, 0x3c, 0x5c, 0x7e,
  0xbe, 0xde, 0xd4, 0xcb, 0x22, 0x34, 0x6b, 0x42, 0xd7, 0x27, 0xfc, 0x14,
  0xf8, 0x0c, 0xfb, 0x02, 0xba, 0xae, 0x32, 0xe4, 0xc5, 0x49, 0xe5, 0xfa,
  0xfe, 0xf6, 0x01, 0x34, 0x7f, 0xa9, 0x45, 0xa8, 0xff, 0xe9, 0xed, 0xd2,
  0xd7, 0x01, 0x04, 0xdb, 0x94, 0x9b, 0xcd, 0x8e, 0x1c, 0x2f, 0x12, 0x03,
  0xec, 0x1e, 0xa5, 0xde, 0x57, 0x46, 0xfd, 0x0b, 0x18, 0x28, 0xe6, 0xfd,
  0xf8, 0x03, 0xbc, 0x95, 0x26, 0x81, 0x06, 0xfd, 0x06, 0xec, 0xf9, 0xcd,
  0x5c, 0x14, 0xcc, 0x10, 0x40, 0xd6, 0xe0, 0x0b, 0xfd, 0x0f, 0x27, 0xb2,
  0x56, 0x6f, 0x31, 0xe0, 0x0a, 0xf1, 0xda, 0xc2, 0x0a, 0x27, 0x7f, 0x70,
  0x91, 0x87, 0x36, 0xd4, 0xce, 0xd8, 0x04, 0x11, 0x2e, 0x56, 0xaa, 0x46,
  0xad, 0xba, 0x1c, 0xc0, 0xd9, 0x0d, 0xfb, 0x81, 0xb4, 0xe5, 0x09, 0x32,
  0xc2, 0xe8, 0xee, 0x2b, 0xdc, 0xf9, 0xd4, 0x33, 0xe5, 0x9d, 0x07, 0x16,
  0xe3, 0xec, 0xec, 0xdf, 0x13, 0x24, 0xaf, 0xe1, 0x56, 0x36, 0xf8, 0xa8,
  0x2a, 0xd3, 0x48, 0x27, 0x81, 0xd4, 0xb0, 0x9a, 0xf5, 0x63, 0xad, 0xc6,
  0x8d, 0xbf, 0x11, 0x78, 0x5c, 0xf9, 0x7e, 0xe7, 0xf8, 0xdb, 0x05, 0xba,
  0x85, 0x28, 0x0d, 0xb0, 0x38, 0x89, 0x7f, 0x0c, 0x21, 0xef, 0x0e, 0xdf,
  0x0e, 0xde, 0x25, 0x56, 0x76, 0x40, 0x5e, 0x02, 0xf6, 0x2d, 0xdb, 0xe8,
  0x26, 0x31, 0xc4, 0xd5, 0x81, 0x85, 0xe7, 0x35, 0x97, 0x9b, 0x25, 0x92,
  0xa7, 0xd7, 0xb8, 0x2f, 0xd5, 0xf3, 0x03, 0xfd, 0xfe, 0x04, 0x1a, 0xad,
  0xd5, 0xa3, 0x07, 0x7f, 0xf6, 0xec, 0xdb, 0x0d, 0x03, 0x4d, 0x1d, 0xc2,
  0x35, 0xf2, 0x11, 0x02, 0xf0, 0x12, 0xed, 0x04, 0x1e, 0x12, 0xe9, 0xac,
  0x70, 0x3a, 0x29, 0xee, 0x35, 0x3f, 0xf9, 0xf8, 0x63, 0x49, 0xf8, 0x09,
  0x13, 0x22, 0x2e, 0x2a, 0x42, 0x0f, 0x15, 0xf6, 0xc9, 0x0d, 0x07, 0xee,
  0x32, 0xfc, 0x01, 0xfa, 0xe6, 0x81, 0x83, 0xea, 0xe5, 0x72, 0xbc, 0xfd,
  0xc1, 0xd1, 0x17, 0xe3, 0xc9, 0xb3, 0x81, 0x2a, 0xc1, 0x4c, 0x22, 0x2f,
  0x4c, 0xf5, 0xff, 0x0f, 0x9f, 0xde, 0xef, 0xcc, 0x3f, 0x3a, 0x42, 0x42,
  0xb5, 0x00, 0x33, 0xd1, 0x4c, 0xd6, 0x78, 0x7f, 0x13, 0xf6, 0xf9, 0xe4,
  0x03, 0xc8, 0xbf, 0x5c, 0x34, 0x91, 0x8c, 0x0c, 0xed, 0x0c, 0x0b, 0x04,
  0xfb, 0xcc, 0x2b, 0xe6, 0x6f, 0x94, 0xd7, 0x09, 0xae, 0x24, 0x03, 0x81,
  0xfc, 0x1a, 0xa9, 0x8b, 0x9a, 0xcd, 0xd3, 0xe0, 0xc5, 0x24, 0xc7, 0x91,
  0x1f, 0xc4, 0x1b, 0x96, 0x0f, 0xc2, 0x09, 0xd2, 0x2e, 0x35, 0x34, 0xb5,
  0x20, 0xf8, 0xef, 0x16, 0x09, 0x99, 0xf2, 0x07, 0x81, 0x2e, 0x57, 0xf4,
  0x25, 0x22, 0x0d, 0xa4, 0x41, 0x25, 0x22, 0xf2, 0xbc, 0x24, 0x03, 0xd9,
  0x1e, 0xc1, 0x25, 0x9a, 0xb3, 0x07, 0xd3, 0x7f, 0x23, 0x1b, 0x9b, 0xbb,
  0x25, 0x05, 0x1e, 0xc2, 0x3b, 0xa2, 0xef, 0xce, 0x37, 0x42, 0x63, 0x1a,
  0x03, 0x3d, 0xff, 0xfd, 0x4d, 0x4e, 0xfa, 0x09, 0x15, 0xb6, 0xf7, 0x1b,
  0xef, 0x02, 0xf9, 0xdc, 0x24, 0xaa, 0x81, 0x4e, 0x24, 0x0f, 0x12, 0x0d,
  0xfa, 0xfc, 0xb7, 0xcb, 0x1b, 0x97, 0x5c, 0xd4, 0x22, 0xf2, 0xff, 0xff,
  0x04, 0x00, 0x00, 0x00, 0x40, 0x00, 0x00, 0x00, 0x00, 0x00, 0x00, 0x00,
  0x00, 0x00, 0x00, 0x00, 0x00, 0x00, 0x00, 0x00, 0x00, 0x00, 0x00, 0x00,
  0x00, 0x00, 0x00, 0x00, 0x00, 0x00, 0x00, 0x00, 0x00, 0x00, 0x00, 0x00,
  0x00, 0x00, 0x00, 0x00, 0x00, 0x00, 0x00, 0x00, 0x00, 0x00, 0x00, 0x00,
  0x00, 0x00, 0x00, 0x00, 0x00, 0x00, 0x00, 0x00, 0x00, 0x00, 0x00, 0x00,
  0x00, 0x00, 0x00, 0x00, 0x00, 0x00, 0x00, 0x00, 0x00, 0x00, 0x00, 0x00,
  0x6e, 0xf2, 0xff, 0xff, 0x04, 0x00, 0x00, 0x00, 0x10, 0x00, 0x00, 0x00,
  0x47, 0x37, 0x7f, 0x2a, 0x23, 0x5f, 0xfd, 0x6b, 0x1e, 0x17, 0x82, 0x25,
  0x28, 0x80, 0xb4, 0xa8, 0x8a, 0xf2, 0xff, 0xff, 0x04, 0x00, 0x00, 0x00,
  0x10, 0x00, 0x00, 0x00, 0x58, 0x3c, 0x56, 0x24, 0x63, 0x3a, 0x3a, 0x7f,
  0x5d, 0x17, 0x5e, 0x06, 0x03, 0x35, 0x21, 0x41, 0xa6, 0xf2, 0xff, 0xff,
  0x04, 0x00, 0x00, 0x00, 0x10, 0x00, 0x00, 0x00, 0xce, 0x16, 0x4c, 0xf5,
  0xb0, 0x2a, 0x04, 0x7f, 0x1b, 0xe7, 0x80, 0xc5, 0xf2, 0x3c, 0x09, 0xc2,
  0xc2, 0xf2, 0xff, 0xff, 0x04, 0x00, 0x00, 0x00, 0x00, 0x06, 0x00, 0x00,
  0x1a, 0x4d, 0xe1, 0xe5, 0x33, 0x3d, 0x25, 0xec, 0xbf, 0x2b, 0x0d, 0x25,
  0x38, 0xfb, 0x5f, 0xf2, 0xe8, 0x1b, 0x4c, 0xdc, 0xcc, 0xf9, 0x01, 0x2c,
  0x0e, 0xcd, 0xf5, 0xf2, 0xe8, 0x18, 0xc6, 0x87, 0x1e, 0x3c, 0x7f, 0xf4,
  0xc5, 0x46, 0xaa, 0x30, 0x14, 0x39, 0x41, 0x1b, 0xae, 0x1e, 0xce, 0x23,
  0x0e, 0x33, 0xba, 0xdf, 0xee, 0x2e, 0x78, 0xe8, 0xa4, 0xf4, 0xe2, 0xe1,
  0x44, 0x18, 0xbe, 0xcf, 0x0e, 0x0a, 0x00, 0xd4, 0xe5, 0x7f, 0x1d, 0xfa,
  0x2c, 0x06, 0xbd, 0x09, 0xf2, 0x24, 0x12, 0x10, 0x09, 0x2a, 0xd9, 0xe1,
  0xec, 0xb0, 0x1f, 0xd7, 0x27, 0xf2, 0x2a, 0xba, 0x2d, 0x1f, 0x68, 0xb9,
  0xd3, 0xff, 0xd2, 0x2e, 0x46, 0xbf, 0xda, 0x5b, 0x1c, 0x25, 0xc7, 0xdf,
  0xc7, 0x3a, 0xc5, 0x2c, 0xd1, 0x1e, 0x58, 0x48, 0xdf, 0xe6, 0x3f, 0x63,
  0x59, 0xe8, 0xf0, 0x18, 0x56, 0x7f, 0xd4, 0xa1, 0xe2, 0xde, 0xec, 0xf3,
  0xec, 0xf2, 0xf3, 0xe9, 0xea, 0xea, 0xff, 0x08, 0xdd, 0xa4, 0x30, 0xb0,
  0x14, 0x2d, 0x19, 0x02, 0xf1, 0x0e, 0x2d, 0x08, 0x00, 0x3d, 0x0f, 0xf1,
  0xc6, 0x11, 0xe2, 0x1f, 0xf1, 0x44, 0x18, 0x06, 0xcf, 0x06, 0x28, 0xfd,
  0x07, 0x07, 0x20, 0xd8, 0x13, 0xf1, 0x2e, 0xdc, 0xd8, 0x26, 0x7f, 0x1d,
  0xca, 0xfc, 0x08, 0x19, 0x0c, 0x08, 0x19, 0xe8, 0x28, 0xf3, 0x17, 0x38,
  0x50, 0xf5, 0x3a, 0xad, 0xd5, 0x21, 0x08, 0xbe, 0x5a, 0x31, 0x53, 0xbd,
  0xef, 0x7f, 0x46, 0xb8, 0xf7, 0x39, 0x08, 0x28, 0x57, 0x4a, 0x00, 0xb2,
  0xc3, 0x2a, 0xce, 0xdc, 0xe2, 0xf2, 0xd5, 0xae, 0xbe, 0xc9, 0x3d, 0x52,
  0xef, 0xbd, 0xfb, 0xee, 0xcc, 0xc9, 0xc6, 0xf0, 0x02, 0xcd, 0xe0, 0xbf,
  0x18, 0x11, 0xa5, 0x35, 0xac, 0xba, 0x15, 0x30, 0x05, 0xf2, 0xdc, 0x1d,
  0xdc, 0x53, 0x10, 0xf0, 0x0c, 0x2f, 0x81, 0x02, 0x63, 0xdb, 0xb6, 0x9f,
  0x68, 0xd1, 0xca, 0xf8, 0xda, 0x24, 0x59, 0x34, 0xe0, 0xcc, 0x58, 0x59,
  0x04, 0xf8, 0xe2, 0xf1, 0xd3, 0xb9, 0x5e, 0xf7, 0xc3, 0x2c, 0xfe, 0x38,
  0x1e, 0x14, 0xe0, 0xfc, 0xf1, 0xe1, 0xe3, 0xaa, 0xdb, 0xf1, 0xd7, 0xf8,
  0x4e, 0x81, 0xca, 0xf5, 0x03, 0xc2, 0xc7, 0x0b, 0xff, 0xe5, 0xc2, 0xea,
  0x32, 0xeb, 0x2b, 0xf9, 0xcd, 0xfc, 0x3a, 0x02, 0x01, 0xda, 0x26, 0x21,
  0xde, 0xf6, 0x41, 0x49, 0xf3, 0xe6, 0x3d, 0x2d, 0xb5, 0xb6, 0x1a, 0xf6,
  0x12, 0x02, 0xd2, 0x01, 0x1f, 0x14, 0xd3, 0xf1, 0xb1, 0x0a, 0x1a, 0xb6,
  0x34, 0x30, 0xda, 0xdd, 0xed, 0xf1, 0xd6, 0x16, 0x63, 0xd4, 0x1f, 0xea,
  0xcd, 0xf5, 0x38, 0xbf, 0xff, 0x86, 0xdb, 0xfb, 0x45, 0x35, 0xcf, 0xd4,
  0x00, 0xe2, 0x1b, 0xf9, 0xf6, 0xf1, 0x45, 0x7f, 0x00, 0x90, 0xab, 0xd5,
  0x28, 0xda, 0x7f, 0xd0, 0xc1, 0x2c, 0xcd, 0x20, 0x22, 0x42, 0xff, 0xd8,
  0xc6, 0xd6, 0xda, 0x2e, 0x0b, 0xf8, 0xad, 0x4c, 0x37, 0xae, 0xfc, 0x33,
  0xe4, 0x0e, 0x13, 0x3e, 0x26, 0xe9, 0xe3, 0x02, 0xbb, 0xe4, 0xeb, 0x20,
  0x20, 0x49, 0xc9, 0x21, 0xda, 0xeb, 0x19, 0x57, 0xfa, 0xb6, 0xca, 0xd8,
  0xd0, 0xe5, 0xd7, 0xc7, 0xf0, 0x06, 0xe3, 0x07, 0x12, 0x01, 0x21, 0x4a,
  0xe0, 0xcf, 0xf7, 0xd3, 0xd0, 0xfe, 0xf5, 0x3a, 0x24, 0xe2, 0x54, 0xc5,
  0x03, 0xf8, 0xe7, 0x18, 0x17, 0xe8, 0xf2, 0x7f, 0x22, 0xf9, 0xd1, 0xfd,
  0x2d, 0x0b, 0xd7, 0xd4, 0x2c, 0x01, 0xe4, 0x03, 0xde, 0x0b, 0x33, 0x15,
  0xe5, 0x13, 0x10, 0x09, 0xdb, 0x0f, 0xa6, 0xfb, 0x1e, 0x28, 0x14, 0x4d,
  0x14, 0xca, 0x4d, 0x10, 0xee, 0xcf, 0x05, 0x3f, 0xdf, 0xf7, 0xce, 0x12,
  0x38, 0x10, 0x4b, 0xf4, 0xd7, 0x04, 0x55, 0xf5, 0x23, 0x26, 0x0e, 0xeb,
  0xfc, 0xf7, 0x5a, 0xd1, 0xf5, 0xe9, 0xe5, 0xfc, 0x19, 0x7f, 0xc3, 0xed,
  0x97, 0x01, 0xd2, 0x41, 0xbf, 0xfb, 0xb9, 0x5a, 0x7f, 0x40, 0x1d, 0x50,
  0x3f, 0x70, 0x6f, 0x22, 0xe2, 0xef, 0xfd, 0x6c, 0x3d, 0xe8, 0xad, 0x15,
  0xbe, 0xef, 0xb3, 0x75, 0x65, 0xb5, 0x63, 0x28, 0x29, 0xe8, 0xef, 0xd4,
  0xc2, 0xfb, 0xb8, 0x14, 0xb1, 0x1b, 0x9c, 0x25, 0xf6, 0xc1, 0x24, 0xc0,
  0xef, 0x4d, 0x7f, 0x10, 0xe2, 0xc7, 0xc8, 0x02, 0x10, 0xfb, 0x01, 0xa9,
  0x02, 0x33, 0xd6, 0x44, 0xf5, 0x0f, 0x1f, 0xfd, 0x07, 0x1f, 0x39, 0x2c,
  0x0e, 0x23, 0xf5, 0x1e, 0xbe, 0xef, 0x31, 0xcb, 0xf7, 0xce, 0x20, 0x01,
  0xc3, 0x01, 0x2d, 0x27, 0x40, 0x17, 0x2f, 0x3d, 0x2d, 0xdc, 0x2c, 0xeb,
  0x17, 0x11, 0x40, 0xc4, 0xf1, 0x4e, 0x5f, 0xad, 0x3f, 0xf2, 0xfa, 0xfc,
  0x5b, 0x9d, 0x16, 0xd3, 0xbb, 0xbe, 0x7f, 0x0c, 0x39, 0x16, 0x2e, 0xd5,
  0x4e, 0x45, 0xb5, 0x27, 0x28, 0x39, 0xed, 0xd0, 0xda, 0x70, 0xbb, 0x5b,
  0xfd, 0xd9, 0xd3, 0x4e, 0x0d, 0xe4, 0xf7, 0x4f, 0xc8, 0x41, 0xf5, 0xe6,
  0x3b, 0xb9, 0x05, 0xdb, 0x49, 0x00, 0x67, 0x08, 0x47, 0x50, 0xf1, 0x34,
  0x36, 0x68, 0x08, 0x13, 0x08, 0xe7, 0x32, 0x12, 0x3b, 0x05, 0xf8, 0xd4,
  0x11, 0x25, 0x1b, 0xd0, 0xc1, 0x27, 0xf6, 0x66, 0x07, 0xc6, 0x2d, 0xde,
  0x45, 0xcf, 0x41, 0x01, 0x06, 0xb2, 0x66, 0xe8, 0xcc, 0xcb, 0x7f, 0xed,
  0xdb, 0x25, 0x14, 0x1e, 0xe2, 0x4b, 0xed, 0xcb, 0x31, 0xfc, 0x2d, 0xc2,
  0x38, 0x4e, 0x56, 0x54, 0x14, 0xdc, 0x46, 0xf6, 0x45, 0x9b, 0x1b, 0x0d,
  0x6a, 0x32, 0x35, 0x06, 0xff, 0x59, 0x70, 0x98, 0xdb, 0xf7, 0x81, 0x49,
  0x2f, 0xd7, 0x26, 0x05, 0x5e, 0xcb, 0x07, 0x0e, 0x31, 0x55, 0xde, 0x53,
  0x60, 0x0d, 0x8e, 0xed, 0xee, 0xc3, 0xf1, 0x45, 0x3d, 0x20, 0xe1, 0x08,
  0xe8, 0xd4, 0x0a, 0x1a, 0xaa, 0xd3, 0x8d, 0x32, 0x4f, 0x7f, 0xec, 0xdd,
  0x38, 0x3d, 0x65, 0x05, 0xd4, 0x04, 0x09, 0xa3, 0x4b, 0x00, 0xed, 0x08,
  0xfd, 0x9d, 0x02, 0xe3, 0x86, 0xd4, 0xf5, 0x14, 0xd9, 0xe0, 0xef, 0xc0,
  0xd0, 0x6a, 0x92, 0xf0, 0x4a, 0x32, 0xd1, 0xbb, 0x13, 0xe6, 0xbb, 0x13,
  0x4e, 0xe8, 0xba, 0x32, 0xcd, 0xb8, 0x00, 0x40, 0x34, 0x59, 0xb9, 0xdb,
  0xac, 0xe9, 0x39, 0xf0, 0x51, 0xab, 0x3b, 0xa7, 0xd1, 0xc4, 0xa5, 0xe8,
  0x31, 0x33, 0xcc, 0xd0, 0xd7, 0xe6, 0x69, 0x25, 0xd0, 0x64, 0xac, 0x7f,
  0xf7, 0x6b, 0x24, 0xe9, 0x11, 0x29, 0x45, 0x1f, 0xde, 0x06, 0x1b, 0x15,
  0xfa, 0x41, 0xd1, 0xc9, 0xed, 0x4c, 0x48, 0x1b, 0xd3, 0x22, 0x2c, 0x16,
  0x2b, 0xff, 0x06, 0x0f, 0x3b, 0xc3, 0x15, 0x0c, 0xf7, 0xf1, 0x68, 0xf7,
  0x09, 0xd4, 0x11, 0x7f, 0xfd, 0x0e, 0xdc, 0x10, 0x2b, 0x74, 0x59, 0xd7,
  0xda, 0x01, 0xdd, 0xff, 0x34, 0xc0, 0x25, 0x24, 0xe0, 0x32, 0x19, 0xae,
  0xf9, 0xd2, 0x07, 0xe6, 0x1f, 0xed, 0xf0, 0x22, 0xaf, 0x78, 0xe5, 0xfe,
  0x24, 0x4a, 0xbe, 0x21, 0xe6, 0x0c, 0xf5, 0x01, 0x1d, 0x12, 0xdd, 0xe6,
  0xd0, 0x7f, 0x47, 0x3c, 0xfb, 0xea, 0x2f, 0x3b, 0xf5, 0xf2, 0xd7, 0xef,
  0xfe, 0x34, 0x28, 0xf4, 0xf6, 0x1c, 0xd0, 0x27, 0xd6, 0x12, 0xbe, 0xdc,
  0x4d, 0x10, 0xed, 0xe2, 0x12, 0x3a, 0x81, 0x1a, 0xfa, 0x10, 0xf5, 0x34,
  0x0e, 0xff, 0xec, 0xdb, 0xf1, 0x26, 0x50, 0xdf, 0xde, 0xc0, 0x59, 0x31,
  0x19, 0x42, 0xe4, 0x26, 0xea, 0x01, 0x55, 0xf9, 0x4e, 0x14, 0xf1, 0xdf,
  0xec, 0x31, 0xc3, 0x36, 0xfb, 0x5b, 0xf2, 0x4a, 0x0e, 0x14, 0xd3, 0xee,
  0x2d, 0x36, 0x2e, 0xe1, 0xf3, 0xf5, 0x75, 0xf9, 0xb9, 0xf0, 0x1e, 0x7f,
  0x44, 0xe5, 0x25, 0x33, 0x28, 0xeb, 0x24, 0xd2, 0x01, 0xeb, 0x6c, 0xf9,
  0x17, 0x09, 0xda, 0x22, 0xef, 0x22, 0xd7, 0x29, 0xd0, 0x02, 0xc4, 0xcc,
  0x39, 0x64, 0xe2, 0xb0, 0xe1, 0x48, 0x06, 0x19, 0x36, 0x20, 0xf0, 0xfb,
  0xd4, 0xf2, 0x11, 0x95, 0x1c, 0x4b, 0x1e, 0xdb, 0x51, 0x14, 0xee, 0x22,
  0x36, 0xfb, 0x3b, 0xef, 0xd8, 0xe0, 0xe9, 0xe2, 0x26, 0x25, 0x7f, 0xf8,
  0xa9, 0x18, 0x12, 0x18, 0xc3, 0x1d, 0xee, 0x06, 0x25, 0xd3, 0x07, 0x06,
  0x43, 0x06, 0x23, 0xf5, 0x32, 0x54, 0x5a, 0x16, 0xda, 0x20, 0xc5, 0x45,
  0x1a, 0xf1, 0x25, 0x53, 0xdc, 0x34, 0x7f, 0xef, 0xe6, 0x38, 0xd3, 0x1b,
  0xd6, 0x33, 0xed, 0x4e, 0xe8, 0x18, 0xce, 0xb6, 0x18, 0xf0, 0xe4, 0xfb,
  0xef, 0x73, 0x28, 0x30, 0x00, 0x1c, 0xe6, 0x03, 0x34, 0xee, 0xed, 0xf0,
  0x47, 0xee, 0xde, 0x05, 0x7c, 0x60, 0x4a, 0x4d, 0x40, 0xf7, 0x53, 0x55,
  0xb4, 0x23, 0xd9, 0x7c, 0x5c, 0x6b, 0xbf, 0x1c, 0xdc, 0x19, 0xcf, 0x13,
  0xc2, 0xdc, 0xf2, 0xfc, 0x2c, 0xbf, 0x13, 0x70, 0xbf, 0xf1, 0xe0, 0xeb,
  0x1f, 0xdb, 0xab, 0x7f, 0xdf, 0x36, 0xc1, 0xcc, 0xef, 0xb3, 0xee, 0xc6,
  0x07, 0x5c, 0xed, 0x49, 0xe8, 0xe2, 0x53, 0x7f, 0xf3, 0x38, 0xfa, 0x00,
  0x2a, 0x37, 0xf6, 0xf5, 0x04, 0xdf, 0x6f, 0xc8, 0xd3, 0xe9, 0xd7, 0x62,
  0x08, 0xe1, 0xc3, 0xd4, 0x42, 0x27, 0x74, 0xf7, 0xd5, 0x3b, 0x05, 0xe8,
  0x30, 0xf3, 0x2f, 0xea, 0xfe, 0x34, 0xb4, 0xcb, 0x35, 0xe4, 0xdd, 0x29,
  0xec, 0xb9, 0x89, 0x41, 0xf2, 0x0c, 0x43, 0x27, 0xb8, 0x71, 0x0f, 0xc7,
  0x41, 0x1b, 0xf7, 0xc8, 0x5b, 0x5c, 0xce, 0x9b, 0x59, 0x4c, 0x48, 0xa6,
  0x0b, 0x2f, 0x17, 0xe4, 0x1f, 0x7f, 0x2e, 0xbc, 0x25, 0x52, 0x83, 0xcf,
  0x0e, 0x2e, 0xaf, 0xdb, 0x1c, 0x6d, 0x28, 0x0c, 0xc9, 0xe2, 0xdd, 0x01,
  0x0a, 0x07, 0x7d, 0x06, 0x27, 0x7f, 0xca, 0x36, 0xeb, 0x21, 0xa1, 0xd9,
  0x33, 0x1f, 0x19, 0x05, 0xd7, 0x49, 0xf2, 0xfb, 0xc5, 0xd8, 0x29, 0xe5,
  0xd0, 0x2f, 0x2b, 0xb9, 0x30, 0x3a, 0xdc, 0xa4, 0xf0, 0xe4, 0x9d, 0xf9,
  0x2a, 0x45, 0xad, 0x0a, 0xda, 0xfa, 0xd4, 0x40, 0xdd, 0xe9, 0xbe, 0xb5,
  0x0e, 0x15, 0x14, 0x3b, 0xd9, 0xa9, 0x3d, 0xb7, 0xd5, 0xdd, 0xd6, 0xe3,
  0x29, 0x7c, 0x49, 0xda, 0x2a, 0xf0, 0x64, 0xdf, 0x40, 0x58, 0xd4, 0xe6,
  0x2d, 0x50, 0xe3, 0xcf, 0xd8, 0x5c, 0x0c, 0x81, 0xdf, 0xf9, 0x1d, 0xfa,
  0x41, 0x56, 0x33, 0xeb, 0x4a, 0xe4, 0xf1, 0xf4, 0xe0, 0xff, 0xc3, 0xd5,
  0x0e, 0xe3, 0x44, 0xfc, 0xf5, 0x60, 0xb8, 0x0e, 0xec, 0x0a, 0x2b, 0x21,
  0xe7, 0xfe, 0x34, 0x0b, 0x10, 0x74, 0x38, 0x0c, 0xd7, 0xab, 0x20, 0x21,
  0x40, 0xff, 0xb4, 0xd9, 0xc7, 0x67, 0x3a, 0xc5, 0xff, 0x7f, 0x05, 0xef,
  0xcd, 0x44, 0x43, 0xec, 0x28, 0x01, 0xdc, 0xfc, 0xd6, 0x09, 0x2a, 0xd1,
  0xcd, 0x54, 0x7f, 0xe4, 0xc1, 0x47, 0xd9, 0x5e, 0x14, 0x15, 0x32, 0xbb,
  0x08, 0x38, 0x4b, 0xdc, 0xf8, 0xb7, 0x0f, 0x1b, 0xc2, 0x4b, 0x1d, 0xfc,
  0x32, 0xf4, 0xc5, 0x2c, 0x02, 0xda, 0x57, 0xe7, 0xf7, 0x17, 0xd3, 0x30,
  0xf6, 0xb4, 0xef, 0x18, 0x02, 0xf5, 0xe0, 0x49, 0x07, 0x5d, 0xdd, 0x3c,
  0x6b, 0x31, 0xcf, 0xd2, 0x7f, 0x81, 0xbb, 0x3d, 0xe3, 0xd6, 0x2b, 0x29,
  0xc1, 0xc1, 0xbe, 0x73, 0x25, 0x4a, 0xfa, 0xbd, 0xe7, 0xa8, 0x56, 0x01,
  0xe6, 0xc9, 0xf6, 0x3a, 0xbd, 0xa0, 0xc8, 0x24, 0x04, 0x23, 0x21, 0xc8,
  0xde, 0x9d, 0x0b, 0x9a, 0xfa, 0xde, 0x4f, 0xd6, 0x4e, 0x28, 0x21, 0x18,
  0xce, 0xf8, 0xff, 0xff, 0x04, 0x00, 0x00, 0x00, 0x80, 0x00, 0x00, 0x00,
  0x00, 0x00, 0x00, 0x00, 0x00, 0x00, 0x00, 0x00, 0x00, 0x00, 0x00, 0x00,
  0x00, 0x00, 0x00, 0x00, 0x00, 0x00, 0x00, 0x00, 0x00, 0x00, 0x00, 0x00,
  0x00, 0x00, 0x00, 0x00, 0x00, 0x00, 0x00, 0x00, 0x00, 0x00, 0x00, 0x00,
  0x00, 0x00, 0x00, 0x00, 0x00, 0x00, 0x00, 0x00, 0x00, 0x00, 0x00, 0x00,
  0x00, 0x00, 0x00, 0x00, 0x00, 0x00, 0x00, 0x00, 0x00, 0x00, 0x00, 0x00,
  0x00, 0x00, 0x00, 0x00, 0x00, 0x00, 0x00, 0x00, 0x00, 0x00, 0x00, 0x00,
  0x00, 0x00, 0x00, 0x00, 0x00, 0x00, 0x00, 0x00, 0x00, 0x00, 0x00, 0x00,
  0x00, 0x00, 0x00, 0x00, 0x00, 0x00, 0x00, 0x00, 0x00, 0x00, 0x00, 0x00,
  0x00, 0x00, 0x00, 0x00, 0x00, 0x00, 0x00, 0x00, 0x00, 0x00, 0x00, 0x00,
  0x00, 0x00, 0x00, 0x00, 0x00, 0x00, 0x00, 0x00, 0x00, 0x00, 0x00, 0x00,
  0x00, 0x00, 0x00, 0x00, 0x00, 0x00, 0x00, 0x00, 0x5a, 0xf9, 0xff, 0xff,
  0x04, 0x00, 0x00, 0x00, 0x20, 0x00, 0x00, 0x00, 0x07, 0xf9, 0x1b, 0x16,
  0x58, 0x0b, 0xde, 0xca, 0xcc, 0x2f, 0xd3, 0x7f, 0x54, 0xd7, 0xb0, 0xd7,
  0x5f, 0x34, 0xef, 0x80, 0x22, 0xe4, 0xd9, 0xe0, 0xbf, 0xf1, 0xbd, 0x05,
  0xf8, 0xe8, 0xf6, 0xc0, 0x86, 0xf9, 0xff, 0xff, 0x04, 0x00, 0x00, 0x00,
  0x20, 0x00, 0x00, 0x00, 0xfe, 0x4e, 0x44, 0x24, 0x4c, 0x10, 0x5e, 0x29,
  0x0b, 0x3f, 0x7f, 0x29, 0x14, 0x04, 0x17, 0xdf, 0x5f, 0x10, 0x0c, 0x27,
  0x0c, 0xf4, 0x12, 0xff, 0x53, 0xfd, 0x3b, 0x08, 0x0e, 0xf5, 0xe9, 0xee,
  0xb2, 0xf9, 0xff, 0xff, 0x04, 0x00, 0x00, 0x00, 0x20, 0x00, 0x00, 0x00,
  0xdd, 0x15, 0x0f, 0xa2, 0x4c, 0x14, 0x7f, 0x72, 0x16, 0x2c, 0xbe, 0xe0,
  0xc2, 0xc4, 0x80, 0x9e, 0x4a, 0x39, 0xa9, 0xeb, 0xd2, 0xcf, 0xdd, 0xa9,
  0xcb, 0xc8, 0xd1, 0x35, 0xea, 0xd9, 0xd4, 0x59, 0xde, 0xf9, 0xff, 0xff,
  0x04, 0x00, 0x00, 0x00, 0x00, 0x04, 0x00, 0x00, 0x8e, 0xb9, 0xc8, 0xf4,
  0xdb, 0x26, 0x0c, 0x18, 0xcf, 0x11, 0x3e, 0x08, 0xa7, 0xd5, 0x10, 0x81,
  0xf6, 0x47, 0xb0, 0xf6, 0xb6, 0xfb, 0x43, 0xcc, 0xfb, 0xd1, 0x2e, 0xc1,
  0x14, 0xbf, 0xf1, 0xc4, 0x22, 0xda, 0xf3, 0x36, 0xe4, 0xd6, 0x2c, 0xa9,
  0xf0, 0xeb, 0x26, 0x47, 0x20, 0x4b, 0xf5, 0xc1, 0x0b, 0x0c, 0xf7, 0x2c,
  0xea, 0x3b, 0xc8, 0x7f, 0xfa, 0x43, 0xee, 0xf7, 0x54, 0x2c, 0x02, 0xcf,
  0xfb, 0x3b, 0x55, 0xfb, 0xf5, 0xea, 0xc7, 0xa8, 0x11, 0xcf, 0x38, 0xf8,
  0x4d, 0x22, 0x11, 0x2b, 0xd7, 0xdd, 0x26, 0x0e, 0x0e, 0x3b, 0x11, 0xfa,
  0xda, 0x1d, 0x48, 0x28, 0x7f, 0x23, 0x4c, 0xbe, 0x81, 0x3f, 0xd8, 0xd7,
  0x66, 0x3d, 0x58, 0x0d, 0x2b, 0x25, 0x16, 0xd5, 0xf2, 0xca, 0xad, 0xaa,
  0x3c, 0xce, 0xf8, 0x06, 0xa7, 0xa9, 0xe0, 0xc1, 0xce, 0x5c, 0x16, 0x34,
  0xe8, 0xa9, 0xed, 0x3e, 0x67, 0xb9, 0x10, 0x7f, 0x1c, 0x24, 0xd7, 0xcd,
  0xa5, 0xb8, 0x20, 0x13, 0x14, 0x4b, 0x64, 0x3b, 0xf7, 0xb1, 0x8e, 0x69,
  0x5f, 0x39, 0x4a, 0xbc, 0x10, 0x48, 0xdf, 0x61, 0x42, 0x58, 0x2d, 0x05,
  0xf5, 0xef, 0x40, 0x01, 0xfe, 0x03, 0xce, 0xe7, 0x06, 0xba, 0x2c, 0x22,
  0x2c, 0x1e, 0xfb, 0x1e, 0xcc, 0xea, 0xc7, 0x1f, 0xe8, 0x0c, 0x47, 0x25,
  0x20, 0x21, 0x14, 0x05, 0x21, 0x48, 0x7f, 0xc7, 0x81, 0xd2, 0x19, 0xd3,
  0xfa, 0x24, 0xbc, 0x05, 0xcc, 0x08, 0x4a, 0x64, 0xa2, 0x29, 0xd2, 0xa3,
  0x1a, 0x36, 0xf5, 0xbc, 0xc8, 0x3b, 0x14, 0x10, 0xe2, 0xa5, 0x0f, 0xa2,
  0xe5, 0xe6, 0xb6, 0xfd, 0x20, 0xf9, 0xdb, 0xd3, 0x07, 0xbc, 0x3d, 0x0d,
  0xd5, 0x72, 0x00, 0xd1, 0x28, 0x0b, 0x7f, 0xc4, 0x2c, 0x5b, 0xd4, 0xcd,
  0x06, 0xcd, 0xea, 0x09, 0xec, 0xc9, 0x48, 0x1b, 0x27, 0x91, 0xeb, 0xf3,
  0x5e, 0x6e, 0x25, 0x21, 0x6d, 0xda, 0xd5, 0xee, 0x2c, 0xa7, 0x14, 0xfd,
  0x73, 0xec, 0x93, 0x38, 0x30, 0x13, 0xe3, 0xef, 0xa5, 0x40, 0x4e, 0xbf,
  0x42, 0xf7, 0xcf, 0x02, 0xd0, 0x43, 0x7f, 0x9f, 0x3a, 0xdc, 0xfa, 0x07,
  0x14, 0x37, 0xf3, 0xe7, 0x4c, 0x7f, 0xf9, 0x21, 0xc7, 0xcf, 0x1b, 0x32,
  0x3e, 0x21, 0xe2, 0xe9, 0x0f, 0xe6, 0xc4, 0xf2, 0x12, 0xfd, 0xeb, 0x32,
  0x07, 0xc9, 0xb3, 0x06, 0xc4, 0xfb, 0xce, 0xe0, 0xe4, 0x08, 0x0b, 0x0e,
  0xdb, 0x11, 0xef, 0xe2, 0xd2, 0xcc, 0xfe, 0xb1, 0xc3, 0x18, 0xc6, 0xda,
  0xe2, 0x81, 0xc5, 0xc1, 0x1a, 0xa7, 0xe1, 0xd1, 0xb8, 0xb5, 0x93, 0xeb,
  0xba, 0x0f, 0x16, 0x0e, 0x9e, 0xb2, 0xb3, 0x0f, 0xc4, 0x5f, 0x3d, 0xb1,
  0x3c, 0x31, 0x20, 0xe4, 0x01, 0xda, 0x81, 0xb2, 0x68, 0xe3, 0x8d, 0xa2,
  0xf8, 0xa7, 0xc3, 0xe6, 0xb2, 0x95, 0xd9, 0x29, 0xff, 0x03, 0x0e, 0xb1,
  0x39, 0xc7, 0xaa, 0x7f, 0xd4, 0xc6, 0xf9, 0xe9, 0xfd, 0x45, 0x1a, 0xf9,
  0xde, 0xbc, 0xd1, 0xe0, 0xe8, 0xde, 0x39, 0xba, 0x0f, 0xe5, 0xcf, 0xab,
  0xad, 0xee, 0xcb, 0x32, 0x81, 0xe3, 0x2b, 0x9b, 0x26, 0xef, 0xdf, 0x04,
  0xbf, 0x29, 0x0f, 0x33, 0xc4, 0x8d, 0x0f, 0x73, 0x5f, 0x34, 0xcb, 0xb5,
  0x53, 0xbd, 0x58, 0x06, 0xe9, 0xf1, 0xb4, 0x54, 0xb4, 0x0e, 0x8e, 0x76,
  0x91, 0xd8, 0xe1, 0xcb, 0xe6, 0x12, 0x11, 0xdd, 0xee, 0xd6, 0xfd, 0xec,
  0xc1, 0xd4, 0x3b, 0xc3, 0xf8, 0x28, 0xca, 0xe8, 0x82, 0xfb, 0xd1, 0xbf,
  0x17, 0xaf, 0x0e, 0xe5, 0xf4, 0xd9, 0x81, 0xfa, 0x5a, 0xe5, 0xcc, 0x1c,
  0xd2, 0x15, 0xfa, 0xd1, 0xdd, 0x57, 0xcb, 0x1e, 0x11, 0xff, 0x7f, 0x09,
  0x5c, 0xf2, 0x8e, 0xa7, 0x9e, 0x99, 0x6c, 0xc9, 0xf8, 0xc2, 0xe8, 0x8d,
  0xbf, 0xc3, 0xaa, 0xe6, 0x52, 0x66, 0x33, 0xce, 0xd6, 0xb7, 0x0e, 0x4b,
  0xce, 0x68, 0xc2, 0x59, 0xa5, 0x44, 0xbc, 0x9b, 0x51, 0xef, 0x1d, 0x55,
  0xd4, 0xa8, 0x0e, 0x81, 0x12, 0xec, 0x22, 0xfc, 0xe8, 0x9d, 0x2e, 0x08,
  0xbd, 0xe0, 0xdd, 0xab, 0x09, 0xf4, 0xf4, 0x2c, 0xe6, 0xdf, 0xe9, 0xf4,
  0xc0, 0xee, 0x7f, 0xe8, 0x12, 0x35, 0xf0, 0xed, 0xd2, 0xd7, 0xe1, 0xcb,
  0x0e, 0xe1, 0xfb, 0xfa, 0xd0, 0xc0, 0xaa, 0x24, 0x0e, 0xe0, 0xdd, 0xf1,
  0x10, 0xf9, 0xe0, 0x2f, 0x13, 0x0f, 0xf5, 0xfc, 0x1a, 0x26, 0x7f, 0xb8,
  0xf6, 0xe0, 0xaa, 0xe6, 0x54, 0xf1, 0x8d, 0xa6, 0xf3, 0xb9, 0xe4, 0x07,
  0xac, 0x3b, 0xf1, 0x10, 0xd6, 0x28, 0xf1, 0x08, 0x0b, 0x00, 0xcc, 0xcf,
  0xe1, 0x2b, 0x08, 0x06, 0x28, 0x03, 0xdb, 0xd2, 0xd0, 0xe8, 0xd8, 0xdd,
  0x2d, 0x68, 0x23, 0xbe, 0xf8, 0x2e, 0x1e, 0x4e, 0xf8, 0xfc, 0x7f, 0xe4,
  0x2b, 0x49, 0xdc, 0xa9, 0xf4, 0x3b, 0x55, 0xea, 0x15, 0xef, 0xdc, 0x4c,
  0xf5, 0xc1, 0x98, 0xfd, 0x16, 0x43, 0x53, 0x39, 0x67, 0xe0, 0xd7, 0xbf,
  0xf0, 0xdb, 0x38, 0xdd, 0xdd, 0xab, 0x81, 0x66, 0x7f, 0x10, 0x22, 0x03,
  0x04, 0x15, 0xef, 0x07, 0xd0, 0xf9, 0x1b, 0x0e, 0xe2, 0x21, 0x52, 0x05,
  0x14, 0xf8, 0x75, 0x0d, 0x56, 0x0d, 0x0b, 0xcb, 0x01, 0x3d, 0xea, 0xf9,
  0x51, 0xeb, 0xf2, 0xda, 0x9c, 0x1b, 0x90, 0x83, 0xbf, 0xf6, 0x10, 0xb3,
  0xb3, 0xd6, 0x20, 0xd3, 0x82, 0xbe, 0x76, 0xc9, 0xe5, 0xfb, 0x8d, 0xd8,
  0xc3, 0x81, 0xd4, 0xcb, 0x2c, 0x96, 0x00, 0xbe, 0xb5, 0x8a, 0x86, 0xec,
  0xf7, 0x03, 0x0c, 0xde, 0xd7, 0x06, 0xc4, 0x3e, 0x30, 0x3b, 0x1c, 0x5e,
  0x13, 0x18, 0xc4, 0x4a, 0xe1, 0xf4, 0x4b, 0x1d, 0x7f, 0x59, 0x3a, 0x06,
  0xc1, 0xb9, 0xe3, 0x50, 0xe7, 0x17, 0x26, 0xfa, 0x77, 0xb8, 0x48, 0xf0,
  0x52, 0x35, 0xf8, 0x83, 0xef, 0x1b, 0xb7, 0x81, 0x2c, 0x4e, 0x2c, 0x5f,
  0xb9, 0x91, 0x50, 0x6d, 0x0d, 0x1f, 0x2f, 0xbd, 0xba, 0x35, 0x12, 0x55,
  0xd5, 0x1a, 0x5c, 0xa0, 0x7f, 0x07, 0x26, 0x3c, 0x40, 0x1c, 0xf3, 0xe2,
  0x1d, 0x1d, 0x07, 0x42, 0x40, 0x52, 0x5c, 0x06, 0x16, 0x04, 0xf4, 0x3b,
  0x12, 0x47, 0x0b, 0xe8, 0xdd, 0x20, 0x2e, 0xdc, 0xbe, 0x0d, 0xcb, 0xf1,
  0x7f, 0xed, 0x10, 0x61, 0x21, 0xdc, 0xc9, 0x8f, 0xf8, 0xc0, 0x59, 0xd0,
  0x4e, 0xda, 0xeb, 0xbc, 0x01, 0xd4, 0x6d, 0xf4, 0x84, 0xd7, 0x70, 0x1f,
  0x0c, 0x03, 0x1b, 0x43, 0xc8, 0x3e, 0x33, 0x9f, 0x45, 0xac, 0xa9, 0x19,
  0x36, 0x0f, 0x6c, 0xfc, 0xd1, 0xbf, 0xd3, 0xa4, 0xd1, 0x1e, 0x6d, 0x50,
  0x1c, 0x2d, 0x57, 0xe5, 0x8f, 0x23, 0xdc, 0xc4, 0xed, 0x81, 0xbd, 0xbc,
  0xf2, 0x9f, 0x1b, 0xec, 0xe8, 0x7f, 0x15, 0xe0, 0x31, 0xe2, 0xe1, 0xca,
  0xff, 0xd2, 0x10, 0x0f, 0xe6, 0x26, 0x69, 0x2a, 0xdc, 0xda, 0xea, 0x1f,
  0x57, 0x08, 0x19, 0x79, 0xe8, 0x0b, 0x13, 0x47, 0x28, 0x47, 0x7f, 0xe4,
  0x33, 0x7f, 0x13, 0xf7, 0xec, 0xdf, 0x08, 0x01, 0x07, 0x49, 0xee, 0x27,
  0xf5, 0xdb, 0xcb, 0xbb, 0xef, 0x03, 0xc6, 0xee, 0x85, 0xdd, 0xce, 0xb3,
  0x24, 0xea, 0x0b, 0x17, 0xe8, 0xc3, 0xc3, 0x33, 0x1f, 0xb5, 0x20, 0x0b,
  0xdf, 0xfd, 0x0f, 0xd7, 0xde, 0xcb, 0xff, 0x51, 0xd0, 0x05, 0x66, 0x59,
  0xee, 0xee, 0x7a, 0x07, 0x7f, 0xe2, 0x3c, 0xe0, 0xdd, 0xfc, 0x06, 0x4b,
  0xf4, 0xf7, 0xdb, 0xbb, 0xf1, 0x5b, 0xf7, 0x1d, 0x20, 0x09, 0xf2, 0xaa,
  0x39, 0xe6, 0x15, 0xc5, 0x3c, 0x43, 0x81, 0x4c, 0x07, 0x35, 0xd2, 0xfc,
  0xcf, 0x5e, 0x24, 0x30, 0xe5, 0x30, 0xf3, 0x36, 0xcb, 0xdd, 0x1f, 0xdb,
  0xea, 0xfd, 0xff, 0xff, 0x04, 0x00, 0x00, 0x00, 0x80, 0x00, 0x00, 0x00,
  0x98, 0xf4, 0x01, 0x00, 0x4b, 0x6f, 0xff, 0xff, 0x16, 0xe0, 0xff, 0xff,
  0x6d, 0xd3, 0x00, 0x00, 0x6c, 0xca, 0xfe, 0xff, 0xd6, 0x91, 0xff, 0xff,
  0x13, 0xa6, 0x01, 0x00, 0x8d, 0x36, 0x00, 0x00, 0x45, 0x5d, 0xff, 0xff,
  0xeb, 0xf0, 0xff, 0xff, 0x39, 0xdd, 0x03, 0x00, 0xe3, 0x0b, 0x02, 0x00,
  0xe5, 0x3d, 0x01, 0x00, 0x5d, 0xbd, 0x00, 0x00, 0x12, 0x38, 0x03, 0x00,
  0x6f, 0xf9, 0x01, 0x00, 0x16, 0x53, 0x00, 0x00, 0x4e, 0x00, 0x02, 0x00,
  0x90, 0xf7, 0x00, 0x00, 0xce, 0xdb, 0xff, 0xff, 0x68, 0x7e, 0x00, 0x00,
  0xbd, 0x23, 0xff, 0xff, 0x8c, 0xd7, 0x04, 0x00, 0x9c, 0x19, 0xff, 0xff,
  0x7e, 0xba, 0xff, 0xff, 0xe6, 0xc6, 0xfe, 0xff, 0x56, 0x0f, 0x00, 0x00,
  0xb7, 0xed, 0x00, 0x00, 0x9c, 0x3c, 0xff, 0xff, 0x89, 0x19, 0x01, 0x00,
  0xbf, 0xcd, 0xff, 0xff, 0x53, 0xc9, 0xff, 0xff, 0x76, 0xfe, 0xff, 0xff,
  0x04, 0x00, 0x00, 0x00, 0x40, 0x00, 0x00, 0x00, 0x70, 0xd5, 0x07, 0x7f,
  0xcc, 0xb4, 0x48, 0x27, 0xa3, 0x77, 0xe3, 0x5f, 0x35, 0x70, 0x48, 0x70,
  0x51, 0x23, 0x64, 0xbe, 0x24, 0xcc, 0xe4, 0xbc, 0x8f, 0xc7, 0xcd, 0x58,
  0xb2, 0x5e, 0xde, 0xdd, 0xfa, 0x38, 0x5e, 0xe7, 0x5e, 0xf6, 0xac, 0xcc,
  0x53, 0x0d, 0x8d, 0x96, 0x8f, 0x81, 0xf7, 0xed, 0x8f, 0xae, 0x03, 0x1d,
  0x89, 0x2b, 0x96, 0x50, 0x2a, 0x49, 0x2d, 0xe5, 0x01, 0xc9, 0x4b, 0x72,
  0xc2, 0xfe, 0xff, 0xff, 0x04, 0x00, 0x00, 0x00, 0x08, 0x00, 0x00, 0x00,
  0x03, 0x1a, 0x00, 0x00, 0x99, 0xe7, 0xff, 0xff, 0xd6, 0xfe, 0xff, 0xff,
  0x04, 0x00, 0x00, 0x00, 0x0c, 0x00, 0x00, 0x00, 0xff, 0xff, 0xff, 0xff,
  0x0c, 0x00, 0x00, 0x00, 0x20, 0x00, 0x00, 0x00, 0xee, 0xfe, 0xff, 0xff,
  0x04, 0x00, 0x00, 0x00, 0x0c, 0x00, 0x00, 0x00, 0xff, 0xff, 0xff, 0xff,
  0x0c, 0x00, 0x00, 0x00, 0x10, 0x00, 0x00, 0x00, 0x06, 0xff, 0xff, 0xff,
  0x04, 0x00, 0x00, 0x00, 0x04, 0x00, 0x00, 0x00, 0x01, 0x00, 0x00, 0x00,
  0x16, 0xff, 0xff, 0xff, 0x04, 0x00, 0x00, 0x00, 0x0c, 0x00, 0x00, 0x00,
  0xff, 0xff, 0xff, 0xff, 0x19, 0x00, 0x00, 0x00, 0x10, 0x00, 0x00, 0x00,
  0x2e, 0xff, 0xff, 0xff, 0x04, 0x00, 0x00, 0x00, 0x04, 0x00, 0x00, 0x00,
  0xfd, 0xff, 0xff, 0xff, 0x44, 0xe1, 0xff, 0xff, 0x48, 0xe1, 0xff, 0xff,
  0x0f, 0x00, 0x00, 0x00, 0x4d, 0x4c, 0x49, 0x52, 0x20, 0x43, 0x6f, 0x6e,
  0x76, 0x65, 0x72, 0x74, 0x65, 0x64, 0x2e, 0x00, 0x01, 0x00, 0x00, 0x00,
  0x14, 0x00, 0x00, 0x00, 0x00, 0x00, 0x0e, 0x00, 0x18, 0x00, 0x14, 0x00,
  0x10, 0x00, 0x0c, 0x00, 0x08, 0x00, 0x04, 0x00, 0x0e, 0x00, 0x00, 0x00,
  0x14, 0x00, 0x00, 0x00, 0x1c, 0x00, 0x00, 0x00, 0x5c, 0x04, 0x00, 0x00,
  0x60, 0x04, 0x00, 0x00, 0x64, 0x04, 0x00, 0x00, 0x04, 0x00, 0x00, 0x00,
  0x6d, 0x61, 0x69, 0x6e, 0x00, 0x00, 0x00, 0x00, 0x13, 0x00, 0x00, 0x00,
  0x14, 0x04, 0x00, 0x00, 0xb8, 0x03, 0x00, 0x00, 0x80, 0x03, 0x00, 0x00,
  0x40, 0x03, 0x00, 0x00, 0x0c, 0x03, 0x00, 0x00, 0xcc, 0x02, 0x00, 0x00,
  0x9c, 0x02, 0x00, 0x00, 0x48, 0x02, 0x00, 0x00, 0x20, 0x02, 0x00, 0x00,
  0xf0, 0x01, 0x00, 0x00, 0xb0, 0x01, 0x00, 0x00, 0x88, 0x01, 0x00, 0x00,
  0x54, 0x01, 0x00, 0x00, 0x20, 0x01, 0x00, 0x00, 0xe8, 0x00, 0x00, 0x00,
  0xb4, 0x00, 0x00, 0x00, 0x78, 0x00, 0x00, 0x00, 0x40, 0x00, 0x00, 0x00,
  0x04, 0x00, 0x00, 0x00, 0x9e, 0xfc, 0xff, 0xff, 0x1c, 0x00, 0x00, 0x00,
  0x00, 0x00, 0x00, 0x09, 0x1c, 0x00, 0x00, 0x00, 0x20, 0x00, 0x00, 0x00,
  0x08, 0x00, 0x00, 0x00, 0x00, 0x00, 0x06, 0x00, 0x08, 0x00, 0x04, 0x00,
  0x06, 0x00, 0x00, 0x00, 0x00, 0x00, 0x80, 0x3f, 0x01, 0x00, 0x00, 0x00,
  0x26, 0x00, 0x00, 0x00, 0x01, 0x00, 0x00, 0x00, 0x25, 0x00, 0x00, 0x00,
  0xd6, 0xfc, 0xff, 0xff, 0x14, 0x00, 0x00, 0x00, 0x00, 0x00, 0x00, 0x08,
  0x10, 0x00, 0x00, 0x00, 0x14, 0x00, 0x00, 0x00, 0x07, 0x00, 0x00, 0x00,
  0x3c, 0xe2, 0xff, 0xff, 0x01, 0x00, 0x00, 0x00, 0x25, 0x00, 0x00, 0x00,
  0x03, 0x00, 0x00, 0x00, 0x24, 0x00, 0x00, 0x00, 0x07, 0x00, 0x00, 0x00,
  0x06, 0x00, 0x00, 0x00, 0x0a, 0xfd, 0xff, 0xff, 0x14, 0x00, 0x00, 0x00,
  0x00, 0x00, 0x00, 0x08, 0x14, 0x00, 0x00, 0x00, 0x18, 0x00, 0x00, 0x00,
  0x07, 0x00, 0x00, 0x00, 0xd6, 0xfd, 0xff, 0xff, 0x00, 0x00, 0x00, 0x01,
  0x01, 0x00, 0x00, 0x00, 0x24, 0x00, 0x00, 0x00, 0x03, 0x00, 0x00, 0x00,
  0x23, 0x00, 0x00, 0x00, 0x09, 0x00, 0x00, 0x00, 0x08, 0x00, 0x00, 0x00,
  0x42, 0xfd, 0xff, 0xff, 0x14, 0x00, 0x00, 0x00, 0x00, 0x00, 0x00, 0x1b,
  0x10, 0x00, 0x00, 0x00, 0x14, 0x00, 0x00, 0x00, 0x06, 0x00, 0x00, 0x00,
  0xa8, 0xe2, 0xff, 0xff, 0x01, 0x00, 0x00, 0x00, 0x23, 0x00, 0x00, 0x00,
  0x02, 0x00, 0x00, 0x00, 0x22, 0x00, 0x00, 0x00, 0x03, 0x00, 0x00, 0x00,
  0x72, 0xfd, 0xff, 0xff, 0x14, 0x00, 0x00, 0x00, 0x00, 0x00, 0x00, 0x0b,
  0x14, 0x00, 0x00, 0x00, 0x18, 0x00, 0x00, 0x00, 0x03, 0x00, 0x00, 0x00,
  0x3e, 0xfe, 0xff, 0xff, 0x00, 0x00, 0x00, 0x01, 0x01, 0x00, 0x00, 0x00,
  0x22, 0x00, 0x00, 0x00, 0x02, 0x00, 0x00, 0x00, 0x21, 0x00, 0x00, 0x00,
  0x0a, 0x00, 0x00, 0x00, 0xa6, 0xfd, 0xff, 0xff, 0x14, 0x00, 0x00, 0x00,
  0x00, 0x00, 0x00, 0x15, 0x10, 0x00, 0x00, 0x00, 0x14, 0x00, 0x00, 0x00,
  0x04, 0x00, 0x00, 0x00, 0x0c, 0xe3, 0xff, 0xff, 0x01, 0x00, 0x00, 0x00,
  0x21, 0x00, 0x00, 0x00, 0x02, 0x00, 0x00, 0x00, 0x20, 0x00, 0x00, 0x00,
  0x0b, 0x00, 0x00, 0x00, 0xd6, 0xfd, 0xff, 0xff, 0x14, 0x00, 0x00, 0x00,
  0x00, 0x00, 0x00, 0x0b, 0x10, 0x00, 0x00, 0x00, 0x14, 0x00, 0x00, 0x00,
  0x03, 0x00, 0x00, 0x00, 0x3c, 0xe3, 0xff, 0xff, 0x01, 0x00, 0x00, 0x00,
  0x20, 0x00, 0x00, 0x00, 0x02, 0x00, 0x00, 0x00, 0x1f, 0x00, 0x00, 0x00,
  0x0c, 0x00, 0x00, 0x00, 0x36, 0xfe, 0xff, 0xff, 0x0c, 0x00, 0x00, 0x00,
  0x10, 0x00, 0x00, 0x00, 0x02, 0x00, 0x00, 0x00, 0x01, 0x00, 0x00, 0x00,
  0x1f, 0x00, 0x00, 0x00, 0x02, 0x00, 0x00, 0x00, 0x1e, 0x00, 0x00, 0x00,
  0x05, 0x00, 0x00, 0x00, 0x2a, 0xfe, 0xff, 0xff, 0x14, 0x00, 0x00, 0x00,
  0x00, 0x00, 0x00, 0x01, 0x18, 0x00, 0x00, 0x00, 0x1c, 0x00, 0x00, 0x00,
  0x01, 0x00, 0x00, 0x00, 0x1a, 0xfe, 0xff, 0xff, 0x01, 0x00, 0x00, 0x00,
  0x01, 0x00, 0x00, 0x00, 0x01, 0x00, 0x00, 0x00, 0x1e, 0x00, 0x00, 0x00,
  0x03, 0x00, 0x00, 0x00, 0x1d, 0x00, 0x00, 0x00, 0x0e, 0x00, 0x00, 0x00,
  0x0d, 0x00, 0x00, 0x00, 0x0e, 0xfe, 0xff, 0xff, 0x10, 0x00, 0x00, 0x00,
  0x00, 0x00, 0x00, 0x34, 0x0c, 0x00, 0x00, 0x00, 0x10, 0x00, 0x00, 0x00,
  0xc8, 0xe3, 0xff, 0xff, 0x01, 0x00, 0x00, 0x00, 0x1d, 0x00, 0x00, 0x00,
  0x02, 0x00, 0x00, 0x00, 0x1c, 0x00, 0x00, 0x00, 0x01, 0x00, 0x00, 0x00,
  0xc2, 0xfe, 0xff, 0xff, 0x0c, 0x00, 0x00, 0x00, 0x10, 0x00, 0x00, 0x00,
  0x02, 0x00, 0x00, 0x00, 0x01, 0x00, 0x00, 0x00, 0x1c, 0x00, 0x00, 0x00,
  0x02, 0x00, 0x00, 0x00, 0x1b, 0x00, 0x00, 0x00, 0x04, 0x00, 0x00, 0x00,
  0xb6, 0xfe, 0xff, 0xff, 0x24, 0x00, 0x00, 0x00, 0x00, 0x00, 0x00, 0x05,
  0x34, 0x00, 0x00, 0x00, 0x38, 0x00, 0x00, 0x00, 0x05, 0x00, 0x00, 0x00,
  0x00, 0x00, 0x0e, 0x00, 0x18, 0x00, 0x17, 0x00, 0x10, 0x00, 0x0c, 0x00,
  0x08, 0x00, 0x04, 0x00, 0x0e, 0x00, 0x00, 0x00, 0x01, 0x00, 0x00, 0x00,
  0x02, 0x00, 0x00, 0x00, 0x01, 0x00, 0x00, 0x00, 0x02, 0x00, 0x00, 0x00,
  0x00, 0x00, 0x00, 0x01, 0x01, 0x00, 0x00, 0x00, 0x1b, 0x00, 0x00, 0x00,
  0x01, 0x00, 0x00, 0x00, 0x1a, 0x00, 0x00, 0x00, 0xae, 0xfe, 0xff, 0xff,
  0x10, 0x00, 0x00, 0x00, 0x00, 0x00, 0x00, 0x34, 0x0c, 0x00, 0x00, 0x00,
  0x10, 0x00, 0x00, 0x00, 0x68, 0xe4, 0xff, 0xff, 0x01, 0x00, 0x00, 0x00,
  0x1a, 0x00, 0x00, 0x00, 0x02, 0x00, 0x00, 0x00, 0x19, 0x00, 0x00, 0x00,
  0x03, 0x00, 0x00, 0x00, 0x32, 0xff, 0xff, 0xff, 0x1c, 0x00, 0x00, 0x00,
  0x00, 0x00, 0x00, 0x0b, 0x1c, 0x00, 0x00, 0x00, 0x20, 0x00, 0x00, 0x00,
  0x03, 0x00, 0x00, 0x00, 0x00, 0x00, 0x06, 0x00, 0x08, 0x00, 0x07, 0x00,
  0x06, 0x00, 0x00, 0x00, 0x00, 0x00, 0x00, 0x01, 0x01, 0x00, 0x00, 0x00,
  0x19, 0x00, 0x00, 0x00, 0x02, 0x00, 0x00, 0x00, 0x18, 0x00, 0x00, 0x00,
  0x0f, 0x00, 0x00, 0x00, 0x6e, 0xff, 0xff, 0xff, 0x14, 0x00, 0x00, 0x00,
  0x00, 0x00, 0x00, 0x15, 0x10, 0x00, 0x00, 0x00, 0x14, 0x00, 0x00, 0x00,
  0x04, 0x00, 0x00, 0x00, 0xd4, 0xe4, 0xff, 0xff, 0x01, 0x00, 0x00, 0x00,
  0x18, 0x00, 0x00, 0x00, 0x02, 0x00, 0x00, 0x00, 0x17, 0x00, 0x00, 0x00,
  0x10, 0x00, 0x00, 0x00, 0x9e, 0xff, 0xff, 0xff, 0x14, 0x00, 0x00, 0x00,
  0x00, 0x00, 0x00, 0x0b, 0x10, 0x00, 0x00, 0x00, 0x14, 0x00, 0x00, 0x00,
  0x03, 0x00, 0x00, 0x00, 0x04, 0xe5, 0xff, 0xff, 0x01, 0x00, 0x00, 0x00,
  0x17, 0x00, 0x00, 0x00, 0x02, 0x00, 0x00, 0x00, 0x16, 0x00, 0x00, 0x00,
  0x11, 0x00, 0x00, 0x00, 0x00, 0x00, 0x0a, 0x00, 0x10, 0x00, 0x0c, 0x00,
  0x08, 0x00, 0x04, 0x00, 0x0a, 0x00, 0x00, 0x00, 0x0c, 0x00, 0x00, 0x00,
  0x10, 0x00, 0x00, 0x00, 0x02, 0x00, 0x00, 0x00, 0x01, 0x00, 0x00, 0x00,
  0x16, 0x00, 0x00, 0x00, 0x02, 0x00, 0x00, 0x00, 0x15, 0x00, 0x00, 0x00,
  0x02, 0x00, 0x00, 0x00, 0x00, 0x00, 0x0e, 0x00, 0x1a, 0x00, 0x14, 0x00,
  0x10, 0x00, 0x0c, 0x00, 0x0b, 0x00, 0x04, 0x00, 0x0e, 0x00, 0x00, 0x00,
  0x20, 0x00, 0x00, 0x00, 0x00, 0x00, 0x00, 0x01, 0x24, 0x00, 0x00, 0x00,
  0x28, 0x00, 0x00, 0x00, 0x01, 0x00, 0x00, 0x00, 0x00, 0x00, 0x0a, 0x00,
  0x0c, 0x00, 0x00, 0x00, 0x08, 0x00, 0x04, 0x00, 0x0a, 0x00, 0x00, 0x00,
  0x01, 0x00, 0x00, 0x00, 0x01, 0x00, 0x00, 0x00, 0x01, 0x00, 0x00, 0x00,
  0x15, 0x00, 0x00, 0x00, 0x03, 0x00, 0x00, 0x00, 0x14, 0x00, 0x00, 0x00,
  0x13, 0x00, 0x00, 0x00, 0x12, 0x00, 0x00, 0x00, 0x00, 0x00, 0x0e, 0x00,
  0x14, 0x00, 0x00, 0x00, 0x10, 0x00, 0x0c, 0x00, 0x0b, 0x00, 0x04, 0x00,
  0x0e, 0x00, 0x00, 0x00, 0x10, 0x00, 0x00, 0x00, 0x00, 0x00, 0x00, 0x34,
  0x0c, 0x00, 0x00, 0x00, 0x10, 0x00, 0x00, 0x00, 0xc8, 0xe5, 0xff, 0xff,
  0x01, 0x00, 0x00, 0x00, 0x14, 0x00, 0x00, 0x00, 0x02, 0x00, 0x00, 0x00,
  0x00, 0x00, 0x00, 0x00, 0x01, 0x00, 0x00, 0x00, 0x01, 0x00, 0x00, 0x00,
  0x26, 0x00, 0x00, 0x00, 0x01, 0x00, 0x00, 0x00, 0x00, 0x00, 0x00, 0x00,
  0x27, 0x00, 0x00, 0x00, 0x44, 0x1a, 0x00, 0x00, 0xec, 0x19, 0x00, 0x00,
  0x94, 0x19, 0x00, 0x00, 0x58, 0x19, 0x00, 0x00, 0x18, 0x19, 0x00, 0x00,
  0xd8, 0x18, 0x00, 0x00, 0x6c, 0x18, 0x00, 0x00, 0xf8, 0x17, 0x00, 0x00,
  0x24, 0x16, 0x00, 0x00, 0x48, 0x14, 0x00, 0x00, 0xe4, 0x13, 0x00, 0x00,
  0x80, 0x13, 0x00, 0x00, 0x14, 0x13, 0x00, 0x00, 0x40, 0x11, 0x00, 0x00,
  0x5c, 0x0f, 0x00, 0x00, 0xf8, 0x0e, 0x00, 0x00, 0x94, 0x0e, 0x00, 0x00,
  0x28, 0x0e, 0x00, 0x00, 0x14, 0x0d, 0x00, 0x00, 0xf0, 0x0b, 0x00, 0x00,
  0x4c, 0x0b, 0x00, 0x00, 0xb0, 0x0a, 0x00, 0x00, 0x18, 0x0a, 0x00, 0x00,
  0x8c, 0x09, 0x00, 0x00, 0xf8, 0x08, 0x00, 0x00, 0x44, 0x08, 0x00, 0x00,
  0x9c, 0x07, 0x00, 0x00, 0x00, 0x07, 0x00, 0x00, 0x68, 0x06, 0x00, 0x00,
  0xc0, 0x05, 0x00, 0x00, 0x24, 0x05, 0x00, 0x00, 0x8c, 0x04, 0x00, 0x00,
  0x00, 0x04, 0x00, 0x00, 0x6c, 0x03, 0x00, 0x00, 0xb8, 0x02, 0x00, 0x00,
  0x30, 0x02, 0x00, 0x00, 0x24, 0x01, 0x00, 0x00, 0x80, 0x00, 0x00, 0x00,
  0x04, 0x00, 0x00, 0x00, 0x6e, 0xe6, 0xff, 0xff, 0x00, 0x00, 0x00, 0x01,
  0x18, 0x00, 0x00, 0x00, 0x20, 0x00, 0x00, 0x00, 0x3c, 0x00, 0x00, 0x00,
  0x27, 0x00, 0x00, 0x00, 0x00, 0x00, 0x00, 0x09, 0x50, 0x00, 0x00, 0x00,
  0x02, 0x00, 0x00, 0x00, 0xff, 0xff, 0xff, 0xff, 0x02, 0x00, 0x00, 0x00,
  0x54, 0xe6, 0xff, 0xff, 0x08, 0x00, 0x00, 0x00, 0x10, 0x00, 0x00, 0x00,
  0x01, 0x00, 0x00, 0x00, 0x80, 0xff, 0xff, 0xff, 0xff, 0xff, 0xff, 0xff,
  0x01, 0x00, 0x00, 0x00, 0x00, 0x00, 0x80, 0x3b, 0x1b, 0x00, 0x00, 0x00,
  0x53, 0x74, 0x61, 0x74, 0x65, 0x66, 0x75, 0x6c, 0x50, 0x61, 0x72, 0x74,
  0x69, 0x74, 0x69, 0x6f, 0x6e, 0x65, 0x64, 0x43, 0x61, 0x6c, 0x6c, 0x5f,
  0x31, 0x3a, 0x30, 0x00, 0x02, 0x00, 0x00, 0x00, 0x01, 0x00, 0x00, 0x00,
  0x02, 0x00, 0x00, 0x00, 0xe6, 0xe6, 0xff, 0xff, 0x00, 0x00, 0x00, 0x01,
  0x18, 0x00, 0x00, 0x00, 0x20, 0x00, 0x00, 0x00, 0x40, 0x00, 0x00, 0x00,
  0x26, 0x00, 0x00, 0x00, 0x00, 0x00, 0x00, 0x09, 0x78, 0x00, 0x00, 0x00,
  0x02, 0x00, 0x00, 0x00, 0xff, 0xff, 0xff, 0xff, 0x02, 0x00, 0x00, 0x00,
  0xcc, 0xe6, 0xff, 0xff, 0x08, 0x00, 0x00, 0x00, 0x14, 0x00, 0x00, 0x00,
  0x01, 0x00, 0x00, 0x00, 0x06, 0x00, 0x00, 0x00, 0x00, 0x00, 0x00, 0x00,
  0x00, 0x00, 0x00, 0x00, 0x01, 0x00, 0x00, 0x00, 0x1a, 0x48, 0xfe, 0x3c,
  0x3c, 0x00, 0x00, 0x00, 0x41, 0x53, 0x4c, 0x5f, 0x43, 0x4e, 0x4e, 0x5f,
  0x53, 0x6d, 0x61, 0x6c, 0x6c, 0x5f, 0x31, 0x2f, 0x6f, 0x75, 0x74, 0x70,
  0x75, 0x74, 0x5f, 0x31, 0x2f, 0x4d, 0x61, 0x74, 0x4d, 0x75, 0x6c, 0x3b,
  0x41, 0x53, 0x4c, 0x5f, 0x43, 0x4e, 0x4e, 0x5f, 0x53, 0x6d, 0x61, 0x6c,
  0x6c, 0x5f, 0x31, 0x2f, 0x6f, 0x75, 0x74, 0x70, 0x75, 0x74, 0x5f, 0x31,
  0x2f, 0x41, 0x64, 0x64, 0x00, 0x00, 0x00, 0x00, 0x02, 0x00, 0x00, 0x00,
  0x01, 0x00, 0x00, 0x00, 0x02, 0x00, 0x00, 0x00, 0x86, 0xe7, 0xff, 0xff,
  0x00, 0x00, 0x00, 0x01, 0x18, 0x00, 0x00, 0x00, 0x20, 0x00, 0x00, 0x00,
  0x3c, 0x00, 0x00, 0x00, 0x25, 0x00, 0x00, 0x00, 0x00, 0x00, 0x00, 0x09,
  0xe0, 0x00, 0x00, 0x00, 0x02, 0x00, 0x00, 0x00, 0xff, 0xff, 0xff, 0xff,
  0x20, 0x00, 0x00, 0x00, 0x6c, 0xe7, 0xff, 0xff, 0x08, 0x00, 0x00, 0x00,
  0x10, 0x00, 0x00, 0x00, 0x01, 0x00, 0x00, 0x00, 0x80, 0xff, 0xff, 0xff,
  0xff, 0xff, 0xff, 0xff, 0x01, 0x00, 0x00, 0x00, 0x56, 0x12, 0xa5, 0x3b,
  0xaa, 0x00, 0x00, 0x00, 0x41, 0x53, 0x4c, 0x5f, 0x43, 0x4e, 0x4e, 0x5f,
  0x53, 0x6d, 0x61, 0x6c, 0x6c, 0x5f, 0x31, 0x2f, 0x64, 0x65, 0x6e, 0x73,
  0x65, 0x5f, 0x31, 0x5f, 0x31, 0x2f, 0x4d, 0x61, 0x74, 0x4d, 0x75, 0x6c,
  0x3b, 0x41, 0x53, 0x4c, 0x5f, 0x43, 0x4e, 0x4e, 0x5f, 0x53, 0x6d, 0x61,
  0x6c, 0x6c, 0x5f, 0x31, 0x2f, 0x64, 0x65, 0x6e, 0x73, 0x65, 0x5f, 0x31,
  0x5f, 0x31, 0x2f, 0x41, 0x64, 0x64, 0x3b, 0x41, 0x53, 0x4c, 0x5f, 0x43,
  0x4e, 0x4e, 0x5f, 0x53, 0x6d, 0x61, 0x6c, 0x6c, 0x5f, 0x31, 0x2f, 0x62,
  0x6e, 0x5f, 0x33, 0x5f, 0x31, 0x2f, 0x62, 0x61, 0x74, 0x63, 0x68, 0x6e,
  0x6f, 0x72, 0x6d, 0x2f, 0x6d, 0x75, 0x6c, 0x5f, 0x31, 0x3b, 0x41, 0x53,
  0x4c, 0x5f, 0x43, 0x4e, 0x4e, 0x5f, 0x53, 0x6d, 0x61, 0x6c, 0x6c, 0x5f,
  0x31, 0x2f, 0x72, 0x65, 0x6c, 0x75, 0x5f, 0x33, 0x5f, 0x31, 0x2f, 0x52,
  0x65, 0x6c, 0x75, 0x3b, 0x41, 0x53, 0x4c, 0x5f, 0x43, 0x4e, 0x4e, 0x5f,
  0x53, 0x6d, 0x61, 0x6c, 0x6c, 0x5f, 0x31, 0x2f, 0x62, 0x6e, 0x5f, 0x33,
  0x5f, 0x31, 0x2f, 0x62, 0x61, 0x74, 0x63, 0x68, 0x6e, 0x6f, 0x72, 0x6d,
  0x2f, 0x61, 0x64, 0x64, 0x5f, 0x31, 0x00, 0x00, 0x02, 0x00, 0x00, 0x00,
  0x01, 0x00, 0x00, 0x00, 0x20, 0x00, 0x00, 0x00, 0x8e, 0xe8, 0xff, 0xff,
  0x00, 0x00, 0x00, 0x01, 0x18, 0x00, 0x00, 0x00, 0x20, 0x00, 0x00, 0x00,
  0x3c, 0x00, 0x00, 0x00, 0x24, 0x00, 0x00, 0x00, 0x00, 0x00, 0x00, 0x09,
  0x5c, 0x00, 0x00, 0x00, 0x02, 0x00, 0x00, 0x00, 0xff, 0xff, 0xff, 0xff,
  0x20, 0x00, 0x00, 0x00, 0x74, 0xe8, 0xff, 0xff, 0x08, 0x00, 0x00, 0x00,
  0x10, 0x00, 0x00, 0x00, 0x01, 0x00, 0x00, 0x00, 0x80, 0xff, 0xff, 0xff,
  0xff, 0xff, 0xff, 0xff, 0x01, 0x00, 0x00, 0x00, 0xec, 0x60, 0x46, 0x3b,
  0x26, 0x00, 0x00, 0x00, 0x41, 0x53, 0x4c, 0x5f, 0x43, 0x4e, 0x4e, 0x5f,
  0x53, 0x6d, 0x61, 0x6c, 0x6c, 0x5f, 0x31, 0x2f, 0x67, 0x6c, 0x6f, 0x62,
  0x61, 0x6c, 0x5f, 0x61, 0x76, 0x67, 0x5f, 0x70, 0x6f, 0x6f, 0x6c, 0x5f,
  0x31, 0x2f, 0x4d, 0x65, 0x61, 0x6e, 0x00, 0x00, 0x02, 0x00, 0x00, 0x00,
  0x01, 0x00, 0x00, 0x00, 0x20, 0x00, 0x00, 0x00, 0x12, 0xe9, 0xff, 0xff,
  0x00, 0x00, 0x00, 0x01, 0x18, 0x00, 0x00, 0x00, 0x24, 0x00, 0x00, 0x00,
  0x44, 0x00, 0x00, 0x00, 0x23, 0x00, 0x00, 0x00, 0x00, 0x00, 0x00, 0x09,
  0x84, 0x00, 0x00, 0x00, 0x03, 0x00, 0x00, 0x00, 0xff, 0xff, 0xff, 0xff,
  0x0c, 0x00, 0x00, 0x00, 0x20, 0x00, 0x00, 0x00, 0xfc, 0xe8, 0xff, 0xff,
  0x08, 0x00, 0x00, 0x00, 0x14, 0x00, 0x00, 0x00, 0x01, 0x00, 0x00, 0x00,
  0x80, 0xff, 0xff, 0xff, 0xff, 0xff, 0xff, 0xff, 0x00, 0x00, 0x00, 0x00,
  0x01, 0x00, 0x00, 0x00, 0x4e, 0xfa, 0xcd, 0x3b, 0x44, 0x00, 0x00, 0x00,
  0x41, 0x53, 0x4c, 0x5f, 0x43, 0x4e, 0x4e, 0x5f, 0x53, 0x6d, 0x61, 0x6c,
  0x6c, 0x5f, 0x31, 0x2f, 0x72, 0x65, 0x6c, 0x75, 0x5f, 0x32, 0x5f, 0x31,
  0x2f, 0x52, 0x65, 0x6c, 0x75, 0x3b, 0x41, 0x53, 0x4c, 0x5f, 0x43, 0x4e,
  0x4e, 0x5f, 0x53, 0x6d, 0x61, 0x6c, 0x6c, 0x5f, 0x31, 0x2f, 0x62, 0x6e,
  0x5f, 0x32, 0x5f, 0x31, 0x2f, 0x62, 0x61, 0x74, 0x63, 0x68, 0x6e, 0x6f,
  0x72, 0x6d, 0x2f, 0x61, 0x64, 0x64, 0x5f, 0x31, 0x00, 0x00, 0x00, 0x00,
  0x03, 0x00, 0x00, 0x00, 0x01, 0x00, 0x00, 0x00, 0x0c, 0x00, 0x00, 0x00,
  0x20, 0x00, 0x00, 0x00, 0xc2, 0xe9, 0xff, 0xff, 0x00, 0x00, 0x00, 0x01,
  0x18, 0x00, 0x00, 0x00, 0x24, 0x00, 0x00, 0x00, 0x44, 0x00, 0x00, 0x00,
  0x22, 0x00, 0x00, 0x00, 0x00, 0x00, 0x00, 0x09, 0x64, 0x00, 0x00, 0x00,
  0x03, 0x00, 0x00, 0x00, 0xff, 0xff, 0xff, 0xff, 0x0c, 0x00, 0x00, 0x00,
  0x20, 0x00, 0x00, 0x00, 0xac, 0xe9, 0xff, 0xff, 0x08, 0x00, 0x00, 0x00,
  0x14, 0x00, 0x00, 0x00, 0x01, 0x00, 0x00, 0x00, 0x01, 0x00, 0x00, 0x00,
  0x00, 0x00, 0x00, 0x00, 0x00, 0x00, 0x00, 0x00, 0x01, 0x00, 0x00, 0x00,
  0x16, 0x6e, 0x5b, 0x3c, 0x26, 0x00, 0x00, 0x00, 0x41, 0x53, 0x4c, 0x5f,
  0x43, 0x4e, 0x4e, 0x5f, 0x53, 0x6d, 0x61, 0x6c, 0x6c, 0x5f, 0x31, 0x2f,
  0x62, 0x6e, 0x5f, 0x32, 0x5f, 0x31, 0x2f, 0x62, 0x61, 0x74, 0x63, 0x68,
  0x6e, 0x6f, 0x72, 0x6d, 0x2f, 0x6d, 0x75, 0x6c, 0x5f, 0x31, 0x00, 0x00,
  0x03, 0x00, 0x00, 0x00, 0x01, 0x00, 0x00, 0x00, 0x0c, 0x00, 0x00, 0x00,
  0x20, 0x00, 0x00, 0x00, 0x52, 0xea, 0xff, 0xff, 0x00, 0x00, 0x00, 0x01,
  0x18, 0x00, 0x00, 0x00, 0x24, 0x00, 0x00, 0x00, 0x44, 0x00, 0x00, 0x00,
  0x21, 0x00, 0x00, 0x00, 0x00, 0x00, 0x00, 0x09, 0x5c, 0x00, 0x00, 0x00,
  0x03, 0x00, 0x00, 0x00, 0xff, 0xff, 0xff, 0xff, 0x0c, 0x00, 0x00, 0x00,
  0x20, 0x00, 0x00, 0x00, 0x3c, 0xea, 0xff, 0xff, 0x08, 0x00, 0x00, 0x00,
  0x14, 0x00, 0x00, 0x00, 0x01, 0x00, 0x00, 0x00, 0x01, 0x00, 0x00, 0x00,
  0x00, 0x00, 0x00, 0x00, 0x00, 0x00, 0x00, 0x00, 0x01, 0x00, 0x00, 0x00,
  0x16, 0x6e, 0x5b, 0x3c, 0x1e, 0x00, 0x00, 0x00, 0x41, 0x53, 0x4c, 0x5f,
  0x43, 0x4e, 0x4e, 0x5f, 0x53, 0x6d, 0x61, 0x6c, 0x6c, 0x5f, 0x31, 0x2f,
  0x63, 0x6f, 0x6e, 0x76, 0x31, 0x64, 0x5f, 0x32, 0x5f, 0x31, 0x2f, 0x61,
  0x64, 0x64, 0x00, 0x00, 0x03, 0x00, 0x00, 0x00, 0x01, 0x00, 0x00, 0x00,
  0x0c, 0x00, 0x00, 0x00, 0x20, 0x00, 0x00, 0x00, 0xda, 0xea, 0xff, 0xff,
  0x00, 0x00, 0x00, 0x01, 0x18, 0x00, 0x00, 0x00, 0x24, 0x00, 0x00, 0x00,
  0x40, 0x00, 0x00, 0x00, 0x20, 0x00, 0x00, 0x00, 0x00, 0x00, 0x00, 0x09,
  0x68, 0x00, 0x00, 0x00, 0x03, 0x00, 0x00, 0x00, 0xff, 0xff, 0xff, 0xff,
  0x0c, 0x00, 0x00, 0x00, 0x20, 0x00, 0x00, 0x00, 0xc4, 0xea, 0xff, 0xff,
  0x08, 0x00, 0x00, 0x00, 0x10, 0x00, 0x00, 0x00, 0x01, 0x00, 0x00, 0x00,
  0xf8, 0xff, 0xff, 0xff, 0xff, 0xff, 0xff, 0xff, 0x01, 0x00, 0x00, 0x00,
  0x68, 0x53, 0xba, 0x3b, 0x2e, 0x00, 0x00, 0x00, 0x41, 0x53, 0x4c, 0x5f,
  0x43, 0x4e, 0x4e, 0x5f, 0x53, 0x6d, 0x61, 0x6c, 0x6c, 0x5f, 0x31, 0x2f,
  0x63, 0x6f, 0x6e, 0x76, 0x31, 0x64, 0x5f, 0x32, 0x5f, 0x31, 0x2f, 0x63,
  0x6f, 0x6e, 0x76, 0x6f, 0x6c, 0x75, 0x74, 0x69, 0x6f, 0x6e, 0x2f, 0x53,
  0x71, 0x75, 0x65, 0x65, 0x7a, 0x65, 0x00, 0x00, 0x03, 0x00, 0x00, 0x00,
  0x01, 0x00, 0x00, 0x00, 0x0c, 0x00, 0x00, 0x00, 0x20, 0x00, 0x00, 0x00,
  0x6e, 0xeb, 0xff, 0xff, 0x00, 0x00, 0x00, 0x01, 0x18, 0x00, 0x00, 0x00,
  0x28, 0x00, 0x00, 0x00, 0x48, 0x00, 0x00, 0x00, 0x1f, 0x00, 0x00, 0x00,
  0x00, 0x00, 0x00, 0x09, 0x68, 0x00, 0x00, 0x00, 0x04, 0x00, 0x00, 0x00,
  0xff, 0xff, 0xff, 0xff, 0x01, 0x00, 0x00, 0x00, 0x0c, 0x00, 0x00, 0x00,
  0x20, 0x00, 0x00, 0x00, 0x5c, 0xeb, 0xff, 0xff, 0x08, 0x00, 0x00, 0x00,
  0x14, 0x00, 0x00, 0x00, 0x01, 0x00, 0x00, 0x00, 0xf8, 0xff, 0xff, 0xff,
  0xff, 0xff, 0xff, 0xff, 0x00, 0x00, 0x00, 0x00, 0x01, 0x00, 0x00, 0x00,
  0x68, 0x53, 0xba, 0x3b, 0x26, 0x00, 0x00, 0x00, 0x41, 0x53, 0x4c, 0x5f,
  0x43, 0x4e, 0x4e, 0x5f, 0x53, 0x6d, 0x61, 0x6c, 0x6c, 0x5f, 0x31, 0x2f,
  0x63, 0x6f, 0x6e, 0x76, 0x31, 0x64, 0x5f, 0x32, 0x5f, 0x31, 0x2f, 0x63,
  0x6f, 0x6e, 0x76, 0x6f, 0x6c, 0x75, 0x74, 0x69, 0x6f, 0x6e, 0x00, 0x00,
  0x04, 0x00, 0x00, 0x00, 0x01, 0x00, 0x00, 0x00, 0x01, 0x00, 0x00, 0x00,
  0x0c, 0x00, 0x00, 0x00, 0x20, 0x00, 0x00, 0x00, 0x06, 0xec, 0xff, 0xff,
  0x00, 0x00, 0x00, 0x01, 0x18, 0x00, 0x00, 0x00, 0x28, 0x00, 0x00, 0x00,
  0x48, 0x00, 0x00, 0x00, 0x1e, 0x00, 0x00, 0x00, 0x00, 0x00, 0x00, 0x09,
  0x74, 0x00, 0x00, 0x00, 0x04, 0x00, 0x00, 0x00, 0xff, 0xff, 0xff, 0xff,
  0x01, 0x00, 0x00, 0x00, 0x0c, 0x00, 0x00, 0x00, 0x10, 0x00, 0x00, 0x00,
  0xf4, 0xeb, 0xff, 0xff, 0x08, 0x00, 0x00, 0x00, 0x14, 0x00, 0x00, 0x00,
  0x01, 0x00, 0x00, 0x00, 0x80, 0xff, 0xff, 0xff, 0xff, 0xff, 0xff, 0xff,
  0x00, 0x00, 0x00, 0x00, 0x01, 0x00, 0x00, 0x00, 0x8e, 0x82, 0x12, 0x3c,
  0x31, 0x00, 0x00, 0x00, 0x41, 0x53, 0x4c, 0x5f, 0x43, 0x4e, 0x4e, 0x5f,
  0x53, 0x6d, 0x61, 0x6c, 0x6c, 0x5f, 0x31, 0x2f, 0x63, 0x6f, 0x6e, 0x76,
  0x31, 0x64, 0x5f, 0x32, 0x5f, 0x31, 0x2f, 0x63, 0x6f, 0x6e, 0x76, 0x6f,
  0x6c, 0x75, 0x74, 0x69, 0x6f, 0x6e, 0x2f, 0x45, 0x78, 0x70, 0x61, 0x6e,
  0x64, 0x44, 0x69, 0x6d, 0x73, 0x00, 0x00, 0x00, 0x04, 0x00, 0x00, 0x00,
  0x01, 0x00, 0x00, 0x00, 0x01, 0x00, 0x00, 0x00, 0x0c, 0x00, 0x00, 0x00,
  0x10, 0x00, 0x00, 0x00, 0xaa, 0xec, 0xff, 0xff, 0x00, 0x00, 0x00, 0x01,
  0x18, 0x00, 0x00, 0x00, 0x24, 0x00, 0x00, 0x00, 0x40, 0x00, 0x00, 0x00,
  0x1d, 0x00, 0x00, 0x00, 0x00, 0x00, 0x00, 0x09, 0x68, 0x00, 0x00, 0x00,
  0x03, 0x00, 0x00, 0x00, 0xff, 0xff, 0xff, 0xff, 0x0c, 0x00, 0x00, 0x00,
  0x10, 0x00, 0x00, 0x00, 0x94, 0xec, 0xff, 0xff, 0x08, 0x00, 0x00, 0x00,
  0x10, 0x00, 0x00, 0x00, 0x01, 0x00, 0x00, 0x00, 0x80, 0xff, 0xff, 0xff,
  0xff, 0xff, 0xff, 0xff, 0x01, 0x00, 0x00, 0x00, 0x8e, 0x82, 0x12, 0x3c,
  0x2d, 0x00, 0x00, 0x00, 0x41, 0x53, 0x4c, 0x5f, 0x43, 0x4e, 0x4e, 0x5f,
  0x53, 0x6d, 0x61, 0x6c, 0x6c, 0x5f, 0x31, 0x2f, 0x6d, 0x61, 0x78, 0x70,
  0x6f, 0x6f, 0x6c, 0x5f, 0x31, 0x5f, 0x31, 0x2f, 0x4d, 0x61, 0x78, 0x50,
  0x6f, 0x6f, 0x6c, 0x31, 0x64, 0x2f, 0x53, 0x71, 0x75, 0x65, 0x65, 0x7a,
  0x65, 0x00, 0x00, 0x00, 0x03, 0x00, 0x00, 0x00, 0x01, 0x00, 0x00, 0x00,
  0x0c, 0x00, 0x00, 0x00, 0x10, 0x00, 0x00, 0x00, 0x3e, 0xed, 0xff, 0xff,
  0x00, 0x00, 0x00, 0x01, 0x18, 0x00, 0x00, 0x00, 0x28, 0x00, 0x00, 0x00,
  0x48, 0x00, 0x00, 0x00, 0x1c, 0x00, 0x00, 0x00, 0x00, 0x00, 0x00, 0x09,
  0x68, 0x00, 0x00, 0x00, 0x04, 0x00, 0x00, 0x00, 0xff, 0xff, 0xff, 0xff,
  0x01, 0x00, 0x00, 0x00, 0x0c, 0x00, 0x00, 0x00, 0x10, 0x00, 0x00, 0x00,
  0x2c, 0xed, 0xff, 0xff, 0x08, 0x00, 0x00, 0x00, 0x14, 0x00, 0x00, 0x00,
  0x01, 0x00, 0x00, 0x00, 0x80, 0xff, 0xff, 0xff, 0xff, 0xff, 0xff, 0xff,
  0x00, 0x00, 0x00, 0x00, 0x01, 0x00, 0x00, 0x00, 0x8e, 0x82, 0x12, 0x3c,
  0x25, 0x00, 0x00, 0x00, 0x41, 0x53, 0x4c, 0x5f, 0x43, 0x4e, 0x4e, 0x5f,
  0x53, 0x6d, 0x61, 0x6c, 0x6c, 0x5f, 0x31, 0x2f, 0x6d, 0x61, 0x78, 0x70,
  0x6f, 0x6f, 0x6c, 0x5f, 0x31, 0x5f, 0x31, 0x2f, 0x4d, 0x61, 0x78, 0x50,
  0x6f, 0x6f, 0x6c, 0x31, 0x64, 0x00, 0x00, 0x00, 0x04, 0x00, 0x00, 0x00,
  0x01, 0x00, 0x00, 0x00, 0x01, 0x00, 0x00, 0x00, 0x0c, 0x00, 0x00, 0x00,
  0x10, 0x00, 0x00, 0x00, 0xd6, 0xed, 0xff, 0xff, 0x00, 0x00, 0x00, 0x01,
  0x18, 0x00, 0x00, 0x00, 0x28, 0x00, 0x00, 0x00, 0x48, 0x00, 0x00, 0x00,
  0x1b, 0x00, 0x00, 0x00, 0x00, 0x00, 0x00, 0x09, 0x74, 0x00, 0x00, 0x00,
  0x04, 0x00, 0x00, 0x00, 0xff, 0xff, 0xff, 0xff, 0x01, 0x00, 0x00, 0x00,
  0x19, 0x00, 0x00, 0x00, 0x10, 0x00, 0x00, 0x00, 0xc4, 0xed, 0xff, 0xff,
  0x08, 0x00, 0x00, 0x00, 0x14, 0x00, 0x00, 0x00, 0x01, 0x00, 0x00, 0x00,
  0x80, 0xff, 0xff, 0xff, 0xff, 0xff, 0xff, 0xff, 0x00, 0x00, 0x00, 0x00,
  0x01, 0x00, 0x00, 0x00, 0x8e, 0x82, 0x12, 0x3c, 0x30, 0x00, 0x00, 0x00,
  0x41, 0x53, 0x4c, 0x5f, 0x43, 0x4e, 0x4e, 0x5f, 0x53, 0x6d, 0x61, 0x6c,
  0x6c, 0x5f, 0x31, 0x2f, 0x6d, 0x61, 0x78, 0x70, 0x6f, 0x6f, 0x6c, 0x5f,
  0x31, 0x5f, 0x31, 0x2f, 0x4d, 0x61, 0x78, 0x50, 0x6f, 0x6f, 0x6c, 0x31,
  0x64, 0x2f, 0x45, 0x78, 0x70, 0x61, 0x6e, 0x64, 0x44, 0x69, 0x6d, 0x73,
  0x00, 0x00, 0x00, 0x00, 0x04, 0x00, 0x00, 0x00, 0x01, 0x00, 0x00, 0x00,
  0x01, 0x00, 0x00, 0x00, 0x19, 0x00, 0x00, 0x00, 0x10, 0x00, 0x00, 0x00,
  0x7a, 0xee, 0xff, 0xff, 0x00, 0x00, 0x00, 0x01, 0x18, 0x00, 0x00, 0x00,
  0x24, 0x00, 0x00, 0x00, 0x44, 0x00, 0x00, 0x00, 0x1a, 0x00, 0x00, 0x00,
  0x00, 0x00, 0x00, 0x09, 0x84, 0x00, 0x00, 0x00, 0x03, 0x00, 0x00, 0x00,
  0xff, 0xff, 0xff, 0xff, 0x19, 0x00, 0x00, 0x00, 0x10, 0x00, 0x00, 0x00,
  0x64, 0xee, 0xff, 0xff, 0x08, 0x00, 0x00, 0x00, 0x14, 0x00, 0x00, 0x00,
  0x01, 0x00, 0x00, 0x00, 0x80, 0xff, 0xff, 0xff, 0xff, 0xff, 0xff, 0xff,
  0x00, 0x00, 0x00, 0x00, 0x01, 0x00, 0x00, 0x00, 0x8e, 0x82, 0x12, 0x3c,
  0x44, 0x00, 0x00, 0x00, 0x41, 0x53, 0x4c, 0x5f, 0x43, 0x4e, 0x4e, 0x5f,
  0x53, 0x6d, 0x61, 0x6c, 0x6c, 0x5f, 0x31, 0x2f, 0x72, 0x65, 0x6c, 0x75,
  0x5f, 0x31, 0x5f, 0x31, 0x2f, 0x52, 0x65, 0x6c, 0x75, 0x3b, 0x41, 0x53,
  0x4c, 0x5f, 0x43, 0x4e, 0x4e, 0x5f, 0x53, 0x6d, 0x61, 0x6c, 0x6c, 0x5f,
  0x31, 0x2f, 0x62, 0x6e, 0x5f, 0x31, 0x5f, 0x31, 0x2f, 0x62, 0x61, 0x74,
  0x63, 0x68, 0x6e, 0x6f, 0x72, 0x6d, 0x2f, 0x61, 0x64, 0x64, 0x5f, 0x31,
  0x00, 0x00, 0x00, 0x00, 0x03, 0x00, 0x00, 0x00, 0x01, 0x00, 0x00, 0x00,
  0x19, 0x00, 0x00, 0x00, 0x10, 0x00, 0x00, 0x00, 0x2a, 0xef, 0xff, 0xff,
  0x00, 0x00, 0x00, 0x01, 0x18, 0x00, 0x00, 0x00, 0x24, 0x00, 0x00, 0x00,
  0x44, 0x00, 0x00, 0x00, 0x19, 0x00, 0x00, 0x00, 0x00, 0x00, 0x00, 0x09,
  0x64, 0x00, 0x00, 0x00, 0x03, 0x00, 0x00, 0x00, 0xff, 0xff, 0xff, 0xff,
  0x19, 0x00, 0x00, 0x00, 0x10, 0x00, 0x00, 0x00, 0x14, 0xef, 0xff, 0xff,
  0x08, 0x00, 0x00, 0x00, 0x14, 0x00, 0x00, 0x00, 0x01, 0x00, 0x00, 0x00,
  0x17, 0x00, 0x00, 0x00, 0x00, 0x00, 0x00, 0x00, 0x00, 0x00, 0x00, 0x00,
  0x01, 0x00, 0x00, 0x00, 0x8d, 0xfa, 0xcd, 0x3c, 0x26, 0x00, 0x00, 0x00,
  0x41, 0x53, 0x4c, 0x5f, 0x43, 0x4e, 0x4e, 0x5f, 0x53, 0x6d, 0x61, 0x6c,
  0x6c, 0x5f, 0x31, 0x2f, 0x62, 0x6e, 0x5f, 0x31, 0x5f, 0x31, 0x2f, 0x62,
  0x61, 0x74, 0x63, 0x68, 0x6e, 0x6f, 0x72, 0x6d, 0x2f, 0x6d, 0x75, 0x6c,
  0x5f, 0x31, 0x00, 0x00, 0x03, 0x00, 0x00, 0x00, 0x01, 0x00, 0x00, 0x00,
  0x19, 0x00, 0x00, 0x00, 0x10, 0x00, 0x00, 0x00, 0xba, 0xef, 0xff, 0xff,
  0x00, 0x00, 0x00, 0x01, 0x18, 0x00, 0x00, 0x00, 0x24, 0x00, 0x00, 0x00,
  0x44, 0x00, 0x00, 0x00, 0x18, 0x00, 0x00, 0x00, 0x00, 0x00, 0x00, 0x09,
  0x5c, 0x00, 0x00, 0x00, 0x03, 0x00, 0x00, 0x00, 0xff, 0xff, 0xff, 0xff,
  0x19, 0x00, 0x00, 0x00, 0x10, 0x00, 0x00, 0x00, 0xa4, 0xef, 0xff, 0xff,
  0x08, 0x00, 0x00, 0x00, 0x14, 0x00, 0x00, 0x00, 0x01, 0x00, 0x00, 0x00,
  0x17, 0x00, 0x00, 0x00, 0x00, 0x00, 0x00, 0x00, 0x00, 0x00, 0x00, 0x00,
  0x01, 0x00, 0x00, 0x00, 0x8d, 0xfa, 0xcd, 0x3c, 0x1e, 0x00, 0x00, 0x00,
  0x41, 0x53, 0x4c, 0x5f, 0x43, 0x4e, 0x4e, 0x5f, 0x53, 0x6d, 0x61, 0x6c,
  0x6c, 0x5f, 0x31, 0x2f, 0x63, 0x6f, 0x6e, 0x76, 0x31, 0x64, 0x5f, 0x31,
  0x5f, 0x31, 0x2f, 0x61, 0x64, 0x64, 0x00, 0x00, 0x03, 0x00, 0x00, 0x00,
  0x01, 0x00, 0x00, 0x00, 0x19, 0x00, 0x00, 0x00, 0x10, 0x00, 0x00, 0x00,
  0x42, 0xf0, 0xff, 0xff, 0x00, 0x00, 0x00, 0x01, 0x18, 0x00, 0x00, 0x00,
  0x24, 0x00, 0x00, 0x00, 0x40, 0x00, 0x00, 0x00, 0x17, 0x00, 0x00, 0x00,
  0x00, 0x00, 0x00, 0x09, 0x68, 0x00, 0x00, 0x00, 0x03, 0x00, 0x00, 0x00,
  0xff, 0xff, 0xff, 0xff, 0x19, 0x00, 0x00, 0x00, 0x10, 0x00, 0x00, 0x00,
  0x2c, 0xf0, 0xff, 0xff, 0x08, 0x00, 0x00, 0x00, 0x10, 0x00, 0x00, 0x00,
  0x01, 0x00, 0x00, 0x00, 0x18, 0x00, 0x00, 0x00, 0x00, 0x00, 0x00, 0x00,
  0x01, 0x00, 0x00, 0x00, 0xd9, 0x41, 0xe5, 0x3b, 0x2e, 0x00, 0x00, 0x00,
  0x41, 0x53, 0x4c, 0x5f, 0x43, 0x4e, 0x4e, 0x5f, 0x53, 0x6d, 0x61, 0x6c,
  0x6c, 0x5f, 0x31, 0x2f, 0x63, 0x6f, 0x6e, 0x76, 0x31, 0x64, 0x5f, 0x31,
  0x5f, 0x31, 0x2f, 0x63, 0x6f, 0x6e, 0x76, 0x6f, 0x6c, 0x75, 0x74, 0x69,
  0x6f, 0x6e, 0x2f, 0x53, 0x71, 0x75, 0x65, 0x65, 0x7a, 0x65, 0x00, 0x00,
  0x03, 0x00, 0x00, 0x00, 0x01, 0x00, 0x00, 0x00, 0x19, 0x00, 0x00, 0x00,
  0x10, 0x00, 0x00, 0x00, 0xd6, 0xf0, 0xff, 0xff, 0x00, 0x00, 0x00, 0x01,
  0x18, 0x00, 0x00, 0x00, 0x28, 0x00, 0x00, 0x00, 0x48, 0x00, 0x00, 0x00,
  0x16, 0x00, 0x00, 0x00, 0x00, 0x00, 0x00, 0x09, 0x68, 0x00, 0x00, 0x00,
  0x04, 0x00, 0x00, 0x00, 0xff, 0xff, 0xff, 0xff, 0x01, 0x00, 0x00, 0x00,
  0x19, 0x00, 0x00, 0x00, 0x10, 0x00, 0x00, 0x00, 0xc4, 0xf0, 0xff, 0xff,
  0x08, 0x00, 0x00, 0x00, 0x14, 0x00, 0x00, 0x00, 0x01, 0x00, 0x00, 0x00,
  0x18, 0x00, 0x00, 0x00, 0x00, 0x00, 0x00, 0x00, 0x00, 0x00, 0x00, 0x00,
  0x01, 0x00, 0x00, 0x00, 0xd9, 0x41, 0xe5, 0x3b, 0x26, 0x00, 0x00, 0x00,
  0x41, 0x53, 0x4c, 0x5f, 0x43, 0x4e, 0x4e, 0x5f, 0x53, 0x6d, 0x61, 0x6c,
  0x6c, 0x5f, 0x31, 0x2f, 0x63, 0x6f, 0x6e, 0x76, 0x31, 0x64, 0x5f, 0x31,
  0x5f, 0x31, 0x2f, 0x63, 0x6f, 0x6e, 0x76, 0x6f, 0x6c, 0x75, 0x74, 0x69,
  0x6f, 0x6e, 0x00, 0x00, 0x04, 0x00, 0x00, 0x00, 0x01, 0x00, 0x00, 0x00,
  0x01, 0x00, 0x00, 0x00, 0x19, 0x00, 0x00, 0x00, 0x10, 0x00, 0x00, 0x00,
  0x6e, 0xf1, 0xff, 0xff, 0x00, 0x00, 0x00, 0x01, 0x18, 0x00, 0x00, 0x00,
  0x28, 0x00, 0x00, 0x00, 0x44, 0x00, 0x00, 0x00, 0x15, 0x00, 0x00, 0x00,
  0x00, 0x00, 0x00, 0x09, 0x70, 0x00, 0x00, 0x00, 0x04, 0x00, 0x00, 0x00,
  0xff, 0xff, 0xff, 0xff, 0x01, 0x00, 0x00, 0x00, 0x19, 0x00, 0x00, 0x00,
  0x0b, 0x00, 0x00, 0x00, 0x5c, 0xf1, 0xff, 0xff, 0x08, 0x00, 0x00, 0x00,
  0x10, 0x00, 0x00, 0x00, 0x01, 0x00, 0x00, 0x00, 0x80, 0xff, 0xff, 0xff,
  0xff, 0xff, 0xff, 0xff, 0x01, 0x00, 0x00, 0x00, 0x28, 0x7f, 0x80, 0x3b,
  0x31, 0x00, 0x00, 0x00, 0x41, 0x53, 0x4c, 0x5f, 0x43, 0x4e, 0x4e, 0x5f,
  0x53, 0x6d, 0x61, 0x6c, 0x6c, 0x5f, 0x31, 0x2f, 0x63, 0x6f, 0x6e, 0x76,
  0x31, 0x64, 0x5f, 0x31, 0x5f, 0x31, 0x2f, 0x63, 0x6f, 0x6e, 0x76, 0x6f,
  0x6c, 0x75, 0x74, 0x69, 0x6f, 0x6e, 0x2f, 0x45, 0x78, 0x70, 0x61, 0x6e,
  0x64, 0x44, 0x69, 0x6d, 0x73, 0x00, 0x00, 0x00, 0x04, 0x00, 0x00, 0x00,
  0x01, 0x00, 0x00, 0x00, 0x01, 0x00, 0x00, 0x00, 0x19, 0x00, 0x00, 0x00,
  0x0b, 0x00, 0x00, 0x00, 0x62, 0xf2, 0xff, 0xff, 0x00, 0x00, 0x00, 0x01,
  0x14, 0x00, 0x00, 0x00, 0xe8, 0x00, 0x00, 0x00, 0x14, 0x00, 0x00, 0x00,
  0x00, 0x00, 0x00, 0x09, 0xf4, 0x00, 0x00, 0x00, 0xe4, 0xf1, 0xff, 0xff,
  0x08, 0x00, 0x00, 0x00, 0x8c, 0x00, 0x00, 0x00, 0x10, 0x00, 0x00, 0x00,
  0x00, 0x00, 0x00, 0x00, 0x00, 0x00, 0x00, 0x00, 0x00, 0x00, 0x00, 0x00,
  0x00, 0x00, 0x00, 0x00, 0x00, 0x00, 0x00, 0x00, 0x00, 0x00, 0x00, 0x00,
  0x00, 0x00, 0x00, 0x00, 0x00, 0x00, 0x00, 0x00, 0x00, 0x00, 0x00, 0x00,
  0x00, 0x00, 0x00, 0x00, 0x00, 0x00, 0x00, 0x00, 0x00, 0x00, 0x00, 0x00,
  0x00, 0x00, 0x00, 0x00, 0x00, 0x00, 0x00, 0x00, 0x00, 0x00, 0x00, 0x00,
  0x00, 0x00, 0x00, 0x00, 0x00, 0x00, 0x00, 0x00, 0x00, 0x00, 0x00, 0x00,
  0x00, 0x00, 0x00, 0x00, 0x00, 0x00, 0x00, 0x00, 0x00, 0x00, 0x00, 0x00,
  0x00, 0x00, 0x00, 0x00, 0x00, 0x00, 0x00, 0x00, 0x00, 0x00, 0x00, 0x00,
  0x00, 0x00, 0x00, 0x00, 0x00, 0x00, 0x00, 0x00, 0x00, 0x00, 0x00, 0x00,
  0x00, 0x00, 0x00, 0x00, 0x00, 0x00, 0x00, 0x00, 0x00, 0x00, 0x00, 0x00,
  0x00, 0x00, 0x00, 0x00, 0x00, 0x00, 0x00, 0x00, 0x00, 0x00, 0x00, 0x00,
  0x10, 0x00, 0x00, 0x00, 0x0e, 0xb4, 0x3e, 0x3a, 0x91, 0x1c, 0x86, 0x3a,
  0xd3, 0xea, 0x90, 0x3a, 0x1c, 0x1b, 0xa5, 0x3a, 0x54, 0x34, 0xf4, 0x3a,
  0x1b, 0x11, 0x9d, 0x3a, 0x38, 0x58, 0xd7, 0x3a, 0x8f, 0x97, 0xae, 0x3a,
  0x1c, 0x69, 0xf4, 0x3a, 0x38, 0xe5, 0xb3, 0x3a, 0x4b, 0xc7, 0xcf, 0x3a,
  0xd2, 0x72, 0xaa, 0x3a, 0x4b, 0x88, 0x5a, 0x3a, 0x63, 0x37, 0xe1, 0x3a,
  0x9f, 0x9b, 0xf6, 0x3a, 0xdd, 0x09, 0xb0, 0x3a, 0x13, 0x00, 0x00, 0x00,
  0x74, 0x66, 0x6c, 0x2e, 0x70, 0x73, 0x65, 0x75, 0x64, 0x6f, 0x5f, 0x71,
  0x63, 0x6f, 0x6e, 0x73, 0x74, 0x31, 0x33, 0x00, 0x04, 0x00, 0x00, 0x00,
  0x10, 0x00, 0x00, 0x00, 0x01, 0x00, 0x00, 0x00, 0x03, 0x00, 0x00, 0x00,
  0x0b, 0x00, 0x00, 0x00, 0x82, 0xf3, 0xff, 0xff, 0x00, 0x00, 0x00, 0x01,
  0x14, 0x00, 0x00, 0x00, 0xe4, 0x00, 0x00, 0x00, 0x13, 0x00, 0x00, 0x00,
  0x00, 0x00, 0x00, 0x02, 0xf0, 0x00, 0x00, 0x00, 0x04, 0xf3, 0xff, 0xff,
  0x08, 0x00, 0x00, 0x00, 0x88, 0x00, 0x00, 0x00, 0x10, 0x00, 0x00, 0x00,
  0x00, 0x00, 0x00, 0x00, 0x00, 0x00, 0x00, 0x00, 0x00, 0x00, 0x00, 0x00,
  0x00, 0x00, 0x00, 0x00, 0x00, 0x00, 0x00, 0x00, 0x00, 0x00, 0x00, 0x00,
  0x00, 0x00, 0x00, 0x00, 0x00, 0x00, 0x00, 0x00, 0x00, 0x00, 0x00, 0x00,
  0x00, 0x00, 0x00, 0x00, 0x00, 0x00, 0x00, 0x00, 0x00, 0x00, 0x00, 0x00,
  0x00, 0x00, 0x00, 0x00, 0x00, 0x00, 0x00, 0x00, 0x00, 0x00, 0x00, 0x00,
  0x00, 0x00, 0x00, 0x00, 0x00, 0x00, 0x00, 0x00, 0x00, 0x00, 0x00, 0x00,
  0x00, 0x00, 0x00, 0x00, 0x00, 0x00, 0x00, 0x00, 0x00, 0x00, 0x00, 0x00,
  0x00, 0x00, 0x00, 0x00, 0x00, 0x00, 0x00, 0x00, 0x00, 0x00, 0x00, 0x00,
  0x00, 0x00, 0x00, 0x00, 0x00, 0x00, 0x00, 0x00, 0x00, 0x00, 0x00, 0x00,
  0x00, 0x00, 0x00, 0x00, 0x00, 0x00, 0x00, 0x00, 0x00, 0x00, 0x00, 0x00,
  0x00, 0x00, 0x00, 0x00, 0x00, 0x00, 0x00, 0x00, 0x10, 0x00, 0x00, 0x00,
  0x80, 0x71, 0x3f, 0x36, 0xcb, 0xa1, 0x86, 0x36, 0xc9, 0x7a, 0x91, 0x36,
  0x20, 0xbf, 0xa5, 0x36, 0xec, 0x26, 0xf5, 0x36, 0x23, 0xad, 0x9d, 0x36,
  0x25, 0x2e, 0xd8, 0x36, 0x00, 0x45, 0xaf, 0x36, 0xe9, 0x5b, 0xf5, 0x36,
  0xee, 0x97, 0xb4, 0x36, 0xb4, 0x95, 0xd0, 0x36, 0x25, 0x1c, 0xab, 0x36,
  0x63, 0x61, 0x5b, 0x36, 0x1e, 0x17, 0xe2, 0x36, 0x9a, 0x90, 0xf7, 0x36,
  0xbe, 0xb8, 0xb0, 0x36, 0x13, 0x00, 0x00, 0x00, 0x74, 0x66, 0x6c, 0x2e,
  0x70, 0x73, 0x65, 0x75, 0x64, 0x6f, 0x5f, 0x71, 0x63, 0x6f, 0x6e, 0x73,
  0x74, 0x31, 0x32, 0x00, 0x01, 0x00, 0x00, 0x00, 0x10, 0x00, 0x00, 0x00,
  0x92, 0xf4, 0xff, 0xff, 0x00, 0x00, 0x00, 0x01, 0x14, 0x00, 0x00, 0x00,
  0x34, 0x00, 0x00, 0x00, 0x12, 0x00, 0x00, 0x00, 0x00, 0x00, 0x00, 0x09,
  0x40, 0x00, 0x00, 0x00, 0x14, 0xf4, 0xff, 0xff, 0x08, 0x00, 0x00, 0x00,
  0x14, 0x00, 0x00, 0x00, 0x01, 0x00, 0x00, 0x00, 0x41, 0x00, 0x00, 0x00,
  0x00, 0x00, 0x00, 0x00, 0x00, 0x00, 0x00, 0x00, 0x01, 0x00, 0x00, 0x00,
  0x22, 0xe5, 0x0d, 0x36, 0x13, 0x00, 0x00, 0x00, 0x74, 0x66, 0x6c, 0x2e,
  0x70, 0x73, 0x65, 0x75, 0x64, 0x6f, 0x5f, 0x71, 0x63, 0x6f, 0x6e, 0x73,
  0x74, 0x31, 0x31, 0x00, 0x03, 0x00, 0x00, 0x00, 0x01, 0x00, 0x00, 0x00,
  0x01, 0x00, 0x00, 0x00, 0x10, 0x00, 0x00, 0x00, 0xfa, 0xf4, 0xff, 0xff,
  0x00, 0x00, 0x00, 0x01, 0x14, 0x00, 0x00, 0x00, 0x34, 0x00, 0x00, 0x00,
  0x11, 0x00, 0x00, 0x00, 0x00, 0x00, 0x00, 0x09, 0x40, 0x00, 0x00, 0x00,
  0x7c, 0xf4, 0xff, 0xff, 0x08, 0x00, 0x00, 0x00, 0x14, 0x00, 0x00, 0x00,
  0x01, 0x00, 0x00, 0x00, 0x80, 0xff, 0xff, 0xff, 0xff, 0xff, 0xff, 0xff,
  0x00, 0x00, 0x00, 0x00, 0x01, 0x00, 0x00, 0x00, 0x03, 0xf3, 0x84, 0x3c,
  0x13, 0x00, 0x00, 0x00, 0x74, 0x66, 0x6c, 0x2e, 0x70, 0x73, 0x65, 0x75,
  0x64, 0x6f, 0x5f, 0x71, 0x63, 0x6f, 0x6e, 0x73, 0x74, 0x31, 0x30, 0x00,
  0x01, 0x00, 0x00, 0x00, 0x10, 0x00, 0x00, 0x00, 0x5a, 0xf5, 0xff, 0xff,
  0x00, 0x00, 0x00, 0x01, 0x14, 0x00, 0x00, 0x00, 0x34, 0x00, 0x00, 0x00,
  0x10, 0x00, 0x00, 0x00, 0x00, 0x00, 0x00, 0x09, 0x40, 0x00, 0x00, 0x00,
  0xdc, 0xf4, 0xff, 0xff, 0x08, 0x00, 0x00, 0x00, 0x14, 0x00, 0x00, 0x00,
  0x01, 0x00, 0x00, 0x00, 0xea, 0xff, 0xff, 0xff, 0xff, 0xff, 0xff, 0xff,
  0x00, 0x00, 0x00, 0x00, 0x01, 0x00, 0x00, 0x00, 0xa0, 0x08, 0xdb, 0x3b,
  0x12, 0x00, 0x00, 0x00, 0x74, 0x66, 0x6c, 0x2e, 0x70, 0x73, 0x65, 0x75,
  0x64, 0x6f, 0x5f, 0x71, 0x63, 0x6f, 0x6e, 0x73, 0x74, 0x39, 0x00, 0x00,
  0x01, 0x00, 0x00, 0x00, 0x10, 0x00, 0x00, 0x00, 0xba, 0xf5, 0xff, 0xff,
  0x00, 0x00, 0x00, 0x01, 0x14, 0x00, 0x00, 0x00, 0xa8, 0x01, 0x00, 0x00,
  0x0f, 0x00, 0x00, 0x00, 0x00, 0x00, 0x00, 0x09, 0xb4, 0x01, 0x00, 0x00,
  0x3c, 0xf5, 0xff, 0xff, 0x08, 0x00, 0x00, 0x00, 0x0c, 0x01, 0x00, 0x00,
  0x20, 0x00, 0x00, 0x00, 0x00, 0x00, 0x00, 0x00, 0x00, 0x00, 0x00, 0x00,
  0x00, 0x00, 0x00, 0x00, 0x00, 0x00, 0x00, 0x00, 0x00, 0x00, 0x00, 0x00,
  0x00, 0x00, 0x00, 0x00, 0x00, 0x00, 0x00, 0x00, 0x00, 0x00, 0x00, 0x00,
  0x00, 0x00, 0x00, 0x00, 0x00, 0x00, 0x00, 0x00, 0x00, 0x00, 0x00, 0x00,
  0x00, 0x00, 0x00, 0x00, 0x00, 0x00, 0x00, 0x00, 0x00, 0x00, 0x00, 0x00,
  0x00, 0x00, 0x00, 0x00, 0x00, 0x00, 0x00, 0x00, 0x00, 0x00, 0x00, 0x00,
  0x00, 0x00, 0x00, 0x00, 0x00, 0x00, 0x00, 0x00, 0x00, 0x00, 0x00, 0x00,
  0x00, 0x00, 0x00, 0x00, 0x00, 0x00, 0x00, 0x00, 0x00, 0x00, 0x00, 0x00,
  0x00, 0x00, 0x00, 0x00, 0x00, 0x00, 0x00, 0x00, 0x00, 0x00, 0x00, 0x00,
  0x00, 0x00, 0x00, 0x00, 0x00, 0x00, 0x00, 0x00, 0x00, 0x00, 0x00, 0x00,
  0x00, 0x00, 0x00, 0x00, 0x00, 0x00, 0x00, 0x00, 0x00, 0x00, 0x00, 0x00,
  0x00, 0x00, 0x00, 0x00, 0x00, 0x00, 0x00, 0x00, 0x00, 0x00, 0x00, 0x00,
  0x00, 0x00, 0x00, 0x00, 0x00, 0x00, 0x00, 0x00, 0x00, 0x00, 0x00, 0x00,
  0x00, 0x00, 0x00, 0x00, 0x00, 0x00, 0x00, 0x00, 0x00, 0x00, 0x00, 0x00,
  0x00, 0x00, 0x00, 0x00, 0x00, 0x00, 0x00, 0x00, 0x00, 0x00, 0x00, 0x00,
  0x00, 0x00, 0x00, 0x00, 0x00, 0x00, 0x00, 0x00, 0x00, 0x00, 0x00, 0x00,
  0x00, 0x00, 0x00, 0x00, 0x00, 0x00, 0x00, 0x00, 0x00, 0x00, 0x00, 0x00,
  0x00, 0x00, 0x00, 0x00, 0x00, 0x00, 0x00, 0x00, 0x00, 0x00, 0x00, 0x00,
  0x00, 0x00, 0x00, 0x00, 0x00, 0x00, 0x00, 0x00, 0x00, 0x00, 0x00, 0x00,
  0x00, 0x00, 0x00, 0x00, 0x00, 0x00, 0x00, 0x00, 0x00, 0x00, 0x00, 0x00,
  0x00, 0x00, 0x00, 0x00, 0x00, 0x00, 0x00, 0x00, 0x00, 0x00, 0x00, 0x00,
  0x00, 0x00, 0x00, 0x00, 0x00, 0x00, 0x00, 0x00, 0x00, 0x00, 0x00, 0x00,
  0x20, 0x00, 0x00, 0x00, 0x15, 0xba, 0x8c, 0x3a, 0x3c, 0x69, 0x15, 0x3a,
  0xea, 0x2d, 0x65, 0x3a, 0x85, 0x7c, 0x90, 0x3a, 0x27, 0x15, 0x6f, 0x3a,
  0xe3, 0x6d, 0x70, 0x3a, 0xde, 0xc2, 0x46, 0x3a, 0x06, 0xb7, 0x53, 0x3a,
  0x10, 0x31, 0x8c, 0x3a, 0xb8, 0x1e, 0x92, 0x3a, 0x3b, 0x8d, 0x4d, 0x3a,
  0x7b, 0x6e, 0x61, 0x3a, 0x3e, 0x75, 0x94, 0x3a, 0x99, 0x96, 0x94, 0x3a,
  0x9b, 0x49, 0x7d, 0x3a, 0x12, 0x5b, 0x75, 0x3a, 0x8b, 0x27, 0x29, 0x3a,
  0x3f, 0x95, 0x54, 0x3a, 0xe4, 0x36, 0x35, 0x3a, 0xb4, 0x05, 0xb7, 0x3a,
  0xf9, 0xa3, 0xa8, 0x3a, 0x38, 0x02, 0x8c, 0x3a, 0x49, 0x2b, 0x95, 0x3a,
  0x66, 0x66, 0x7f, 0x3a, 0x99, 0x6b, 0x26, 0x3a, 0x86, 0xa2, 0x96, 0x3a,
  0x1f, 0x6e, 0x5a, 0x3a, 0x9f, 0x8d, 0x9d, 0x3a, 0x60, 0x80, 0x90, 0x3a,
  0xdb, 0x9e, 0x95, 0x3a, 0x12, 0x78, 0xaf, 0x3a, 0xdd, 0x31, 0x96, 0x3a,
  0x12, 0x00, 0x00, 0x00, 0x74, 0x66, 0x6c, 0x2e, 0x70, 0x73, 0x65, 0x75,
  0x64, 0x6f, 0x5f, 0x71, 0x63, 0x6f, 0x6e, 0x73, 0x74, 0x38, 0x00, 0x00,
  0x04, 0x00, 0x00, 0x00, 0x20, 0x00, 0x00, 0x00, 0x01, 0x00, 0x00, 0x00,
  0x03, 0x00, 0x00, 0x00, 0x10, 0x00, 0x00, 0x00, 0x9a, 0xf7, 0xff, 0xff,
  0x00, 0x00, 0x00, 0x01, 0x14, 0x00, 0x00, 0x00, 0xa4, 0x01, 0x00, 0x00,
  0x0e, 0x00, 0x00, 0x00, 0x00, 0x00, 0x00, 0x02, 0xb0, 0x01, 0x00, 0x00,
  0x1c, 0xf7, 0xff, 0xff, 0x08, 0x00, 0x00, 0x00, 0x08, 0x01, 0x00, 0x00,
  0x20, 0x00, 0x00, 0x00, 0x00, 0x00, 0x00, 0x00, 0x00, 0x00, 0x00, 0x00,
  0x00, 0x00, 0x00, 0x00, 0x00, 0x00, 0x00, 0x00, 0x00, 0x00, 0x00, 0x00,
  0x00, 0x00, 0x00, 0x00, 0x00, 0x00, 0x00, 0x00, 0x00, 0x00, 0x00, 0x00,
  0x00, 0x00, 0x00, 0x00, 0x00, 0x00, 0x00, 0x00, 0x00, 0x00, 0x00, 0x00,
  0x00, 0x00, 0x00, 0x00, 0x00, 0x00, 0x00, 0x00, 0x00, 0x00, 0x00, 0x00,
  0x00, 0x00, 0x00, 0x00, 0x00, 0x00, 0x00, 0x00, 0x00, 0x00, 0x00, 0x00,
  0x00, 0x00, 0x00, 0x00, 0x00, 0x00, 0x00, 0x00, 0x00, 0x00, 0x00, 0x00,
  0x00, 0x00, 0x00, 0x00, 0x00, 0x00, 0x00, 0x00, 0x00, 0x00, 0x00, 0x00,
  0x00, 0x00, 0x00, 0x00, 0x00, 0x00, 0x00, 0x00, 0x00, 0x00, 0x00, 0x00,
  0x00, 0x00, 0x00, 0x00, 0x00, 0x00, 0x00, 0x00, 0x00, 0x00, 0x00, 0x00,
  0x00, 0x00, 0x00, 0x00, 0x00, 0x00, 0x00, 0x00, 0x00, 0x00, 0x00, 0x00,
  0x00, 0x00, 0x00, 0x00, 0x00, 0x00, 0x00, 0x00, 0x00, 0x00, 0x00, 0x00,
  0x00, 0x00, 0x00, 0x00, 0x00, 0x00, 0x00, 0x00, 0x00, 0x00, 0x00, 0x00,
  0x00, 0x00, 0x00, 0x00, 0x00, 0x00, 0x00, 0x00, 0x00, 0x00, 0x00, 0x00,
  0x00, 0x00, 0x00, 0x00, 0x00, 0x00, 0x00, 0x00, 0x00, 0x00, 0x00, 0x00,
  0x00, 0x00, 0x00, 0x00, 0x00, 0x00, 0x00, 0x00, 0x00, 0x00, 0x00, 0x00,
  0x00, 0x00, 0x00, 0x00, 0x00, 0x00, 0x00, 0x00, 0x00, 0x00, 0x00, 0x00,
  0x00, 0x00, 0x00, 0x00, 0x00, 0x00, 0x00, 0x00, 0x00, 0x00, 0x00, 0x00,
  0x00, 0x00, 0x00, 0x00, 0x00, 0x00, 0x00, 0x00, 0x00, 0x00, 0x00, 0x00,
  0x00, 0x00, 0x00, 0x00, 0x00, 0x00, 0x00, 0x00, 0x00, 0x00, 0x00, 0x00,
  0x00, 0x00, 0x00, 0x00, 0x00, 0x00, 0x00, 0x00, 0x00, 0x00, 0x00, 0x00,
  0x00, 0x00, 0x00, 0x00, 0x00, 0x00, 0x00, 0x00, 0x20, 0x00, 0x00, 0x00,
  0xc9, 0x13, 0x21, 0x37, 0x6d, 0x04, 0xab, 0x36, 0x10, 0x29, 0x03, 0x37,
  0x66, 0x61, 0x25, 0x37, 0xfe, 0xd3, 0x08, 0x37, 0x49, 0x99, 0x09, 0x37,
  0x00, 0x81, 0xe3, 0x36, 0xb4, 0x54, 0xf2, 0x36, 0xf4, 0x76, 0x20, 0x37,
  0x13, 0x40, 0x27, 0x37, 0xbf, 0x46, 0xeb, 0x36, 0xf9, 0x03, 0x01, 0x37,
  0x26, 0xed, 0x29, 0x37, 0x54, 0x13, 0x2a, 0x37, 0x26, 0xf5, 0x10, 0x37,
  0x11, 0x6b, 0x0c, 0x37, 0xa2, 0x9d, 0xc1, 0x36, 0x0f, 0x53, 0xf3, 0x36,
  0x71, 0x6b, 0xcf, 0x36, 0x2e, 0x7d, 0x51, 0x37, 0x0a, 0x07, 0x41, 0x37,
  0x55, 0x41, 0x20, 0x37, 0x85, 0xbd, 0x2a, 0x37, 0xa6, 0x2a, 0x12, 0x37,
  0x78, 0x7c, 0xbe, 0x36, 0x05, 0x6b, 0x2c, 0x37, 0x66, 0x04, 0xfa, 0x36,
  0x3c, 0x56, 0x34, 0x37, 0xd0, 0x65, 0x25, 0x37, 0xcd, 0x41, 0x2b, 0x37,
  0xed, 0xd7, 0x48, 0x37, 0x11, 0xea, 0x2b, 0x37, 0x12, 0x00, 0x00, 0x00,
  0x74, 0x66, 0x6c, 0x2e, 0x70, 0x73, 0x65, 0x75, 0x64, 0x6f, 0x5f, 0x71,
  0x63, 0x6f, 0x6e, 0x73, 0x74, 0x37, 0x00, 0x00, 0x01, 0x00, 0x00, 0x00,
  0x20, 0x00, 0x00, 0x00, 0x6a, 0xf9, 0xff, 0xff, 0x00, 0x00, 0x00, 0x01,
  0x14, 0x00, 0x00, 0x00, 0x34, 0x00, 0x00, 0x00, 0x0d, 0x00, 0x00, 0x00,
  0x00, 0x00, 0x00, 0x09, 0x40, 0x00, 0x00, 0x00, 0xec, 0xf8, 0xff, 0xff,
  0x08, 0x00, 0x00, 0x00, 0x14, 0x00, 0x00, 0x00, 0x01, 0x00, 0x00, 0x00,
  0xf6, 0xff, 0xff, 0xff, 0xff, 0xff, 0xff, 0xff, 0x00, 0x00, 0x00, 0x00,
  0x01, 0x00, 0x00, 0x00, 0x12, 0xcf, 0xc7, 0x35, 0x12, 0x00, 0x00, 0x00,
  0x74, 0x66, 0x6c, 0x2e, 0x70, 0x73, 0x65, 0x75, 0x64, 0x6f, 0x5f, 0x71,
  0x63, 0x6f, 0x6e, 0x73, 0x74, 0x36, 0x00, 0x00, 0x03, 0x00, 0x00, 0x00,
  0x01, 0x00, 0x00, 0x00, 0x01, 0x00, 0x00, 0x00, 0x20, 0x00, 0x00, 0x00,
  0xd2, 0xf9, 0xff, 0xff, 0x00, 0x00, 0x00, 0x01, 0x14, 0x00, 0x00, 0x00,
  0x34, 0x00, 0x00, 0x00, 0x0c, 0x00, 0x00, 0x00, 0x00, 0x00, 0x00, 0x09,
  0x40, 0x00, 0x00, 0x00, 0x54, 0xf9, 0xff, 0xff, 0x08, 0x00, 0x00, 0x00,
  0x14, 0x00, 0x00, 0x00, 0x01, 0x00, 0x00, 0x00, 0x80, 0xff, 0xff, 0xff,
  0xff, 0xff, 0xff, 0xff, 0x00, 0x00, 0x00, 0x00, 0x01, 0x00, 0x00, 0x00,
  0x5c, 0x47, 0x99, 0x3c, 0x12, 0x00, 0x00, 0x00, 0x74, 0x66, 0x6c, 0x2e,
  0x70, 0x73, 0x65, 0x75, 0x64, 0x6f, 0x5f, 0x71, 0x63, 0x6f, 0x6e, 0x73,
  0x74, 0x35, 0x00, 0x00, 0x01, 0x00, 0x00, 0x00, 0x20, 0x00, 0x00, 0x00,
  0x32, 0xfa, 0xff, 0xff, 0x00, 0x00, 0x00, 0x01, 0x14, 0x00, 0x00, 0x00,
  0x34, 0x00, 0x00, 0x00, 0x0b, 0x00, 0x00, 0x00, 0x00, 0x00, 0x00, 0x09,
  0x40, 0x00, 0x00, 0x00, 0xb4, 0xf9, 0xff, 0xff, 0x08, 0x00, 0x00, 0x00,
  0x14, 0x00, 0x00, 0x00, 0x01, 0x00, 0x00, 0x00, 0x17, 0x00, 0x00, 0x00,
  0x00, 0x00, 0x00, 0x00, 0x00, 0x00, 0x00, 0x00, 0x01, 0x00, 0x00, 0x00,
  0x77, 0xe7, 0xcb, 0x3b, 0x12, 0x00, 0x00, 0x00, 0x74, 0x66, 0x6c, 0x2e,
  0x70, 0x73, 0x65, 0x75, 0x64, 0x6f, 0x5f, 0x71, 0x63, 0x6f, 0x6e, 0x73,
  0x74, 0x34, 0x00, 0x00, 0x01, 0x00, 0x00, 0x00, 0x20, 0x00, 0x00, 0x00,
  0x92, 0xfa, 0xff, 0xff, 0x00, 0x00, 0x00, 0x01, 0x14, 0x00, 0x00, 0x00,
  0xa8, 0x01, 0x00, 0x00, 0x0a, 0x00, 0x00, 0x00, 0x00, 0x00, 0x00, 0x09,
  0xb4, 0x01, 0x00, 0x00, 0x14, 0xfa, 0xff, 0xff, 0x08, 0x00, 0x00, 0x00,
  0x0c, 0x01, 0x00, 0x00, 0x20, 0x00, 0x00, 0x00, 0x00, 0x00, 0x00, 0x00,
  0x00, 0x00, 0x00, 0x00, 0x00, 0x00, 0x00, 0x00, 0x00, 0x00, 0x00, 0x00,
  0x00, 0x00, 0x00, 0x00, 0x00, 0x00, 0x00, 0x00, 0x00, 0x00, 0x00, 0x00,
  0x00, 0x00, 0x00, 0x00, 0x00, 0x00, 0x00, 0x00, 0x00, 0x00, 0x00, 0x00,
  0x00, 0x00, 0x00, 0x00, 0x00, 0x00, 0x00, 0x00, 0x00, 0x00, 0x00, 0x00,
  0x00, 0x00, 0x00, 0x00, 0x00, 0x00, 0x00, 0x00, 0x00, 0x00, 0x00, 0x00,
  0x00, 0x00, 0x00, 0x00, 0x00, 0x00, 0x00, 0x00, 0x00, 0x00, 0x00, 0x00,
  0x00, 0x00, 0x00, 0x00, 0x00, 0x00, 0x00, 0x00, 0x00, 0x00, 0x00, 0x00,
  0x00, 0x00, 0x00, 0x00, 0x00, 0x00, 0x00, 0x00, 0x00, 0x00, 0x00, 0x00,
  0x00, 0x00, 0x00, 0x00, 0x00, 0x00, 0x00, 0x00, 0x00, 0x00, 0x00, 0x00,
  0x00, 0x00, 0x00, 0x00, 0x00, 0x00, 0x00, 0x00, 0x00, 0x00, 0x00, 0x00,
  0x00, 0x00, 0x00, 0x00, 0x00, 0x00, 0x00, 0x00, 0x00, 0x00, 0x00, 0x00,
  0x00, 0x00, 0x00, 0x00, 0x00, 0x00, 0x00, 0x00, 0x00, 0x00, 0x00, 0x00,
  0x00, 0x00, 0x00, 0x00, 0x00, 0x00, 0x00, 0x00, 0x00, 0x00, 0x00, 0x00,
  0x00, 0x00, 0x00, 0x00, 0x00, 0x00, 0x00, 0x00, 0x00, 0x00, 0x00, 0x00,
  0x00, 0x00, 0x00, 0x00, 0x00, 0x00, 0x00, 0x00, 0x00, 0x00, 0x00, 0x00,
  0x00, 0x00, 0x00, 0x00, 0x00, 0x00, 0x00, 0x00, 0x00, 0x00, 0x00, 0x00,
  0x00, 0x00, 0x00, 0x00, 0x00, 0x00, 0x00, 0x00, 0x00, 0x00, 0x00, 0x00,
  0x00, 0x00, 0x00, 0x00, 0x00, 0x00, 0x00, 0x00, 0x00, 0x00, 0x00, 0x00,
  0x00, 0x00, 0x00, 0x00, 0x00, 0x00, 0x00, 0x00, 0x00, 0x00, 0x00, 0x00,
  0x00, 0x00, 0x00, 0x00, 0x00, 0x00, 0x00, 0x00, 0x00, 0x00, 0x00, 0x00,
  0x00, 0x00, 0x00, 0x00, 0x00, 0x00, 0x00, 0x00, 0x00, 0x00, 0x00, 0x00,
  0x00, 0x00, 0x00, 0x00, 0x20, 0x00, 0x00, 0x00, 0x2d, 0x6a, 0x3d, 0x3b,
  0x06, 0xd1, 0x4f, 0x3b, 0xc6, 0xb7, 0x2c, 0x3b, 0xaf, 0xdd, 0x4d, 0x3b,
  0xe7, 0x26, 0xf7, 0x3a, 0x3a, 0x03, 0x4b, 0x3b, 0x26, 0x03, 0x63, 0x3b,
  0xda, 0xfd, 0x81, 0x3b, 0xf3, 0xc0, 0x46, 0x3b, 0xff, 0x63, 0xc4, 0x3b,
  0xd8, 0x4f, 0xf8, 0x3a, 0x13, 0x90, 0x32, 0x3b, 0x21, 0xce, 0x88, 0x3b,
  0xca, 0xb9, 0x68, 0x3b, 0xab, 0xcc, 0x04, 0x3b, 0x1b, 0x87, 0x34, 0x3b,
  0x33, 0xd4, 0x92, 0x3b, 0xe1, 0xfc, 0x34, 0x3b, 0xf7, 0x01, 0x9d, 0x3b,
  0x1f, 0xe2, 0xa2, 0x3b, 0xff, 0xc7, 0x8a, 0x3b, 0x4a, 0x7d, 0x69, 0x3b,
  0x6c, 0x2a, 0xd8, 0x3a, 0xb7, 0x12, 0x6f, 0x3b, 0xff, 0x8d, 0x17, 0x3b,
  0x76, 0x48, 0x61, 0x3b, 0xe9, 0xe1, 0x34, 0x3b, 0x7a, 0xf8, 0x80, 0x3b,
  0xcb, 0xcf, 0x1e, 0x3b, 0xe9, 0x2f, 0x6a, 0x3b, 0xed, 0x08, 0x8b, 0x3b,
  0xc4, 0x50, 0x94, 0x3b, 0x12, 0x00, 0x00, 0x00, 0x74, 0x66, 0x6c, 0x2e,
  0x70, 0x73, 0x65, 0x75, 0x64, 0x6f, 0x5f, 0x71, 0x63, 0x6f, 0x6e, 0x73,
  0x74, 0x33, 0x00, 0x00, 0x02, 0x00, 0x00, 0x00, 0x20, 0x00, 0x00, 0x00,
  0x20, 0x00, 0x00, 0x00, 0x6a, 0xfc, 0xff, 0xff, 0x00, 0x00, 0x00, 0x01,
  0x14, 0x00, 0x00, 0x00, 0xa4, 0x01, 0x00, 0x00, 0x09, 0x00, 0x00, 0x00,
  0x00, 0x00, 0x00, 0x02, 0xb0, 0x01, 0x00, 0x00, 0xec, 0xfb, 0xff, 0xff,
  0x08, 0x00, 0x00, 0x00, 0x08, 0x01, 0x00, 0x00, 0x20, 0x00, 0x00, 0x00,
  0x00, 0x00, 0x00, 0x00, 0x00, 0x00, 0x00, 0x00, 0x00, 0x00, 0x00, 0x00,
  0x00, 0x00, 0x00, 0x00, 0x00, 0x00, 0x00, 0x00, 0x00, 0x00, 0x00, 0x00,
  0x00, 0x00, 0x00, 0x00, 0x00, 0x00, 0x00, 0x00, 0x00, 0x00, 0x00, 0x00,
  0x00, 0x00, 0x00, 0x00, 0x00, 0x00, 0x00, 0x00, 0x00, 0x00, 0x00, 0x00,
  0x00, 0x00, 0x00, 0x00, 0x00, 0x00, 0x00, 0x00, 0x00, 0x00, 0x00, 0x00,
  0x00, 0x00, 0x00, 0x00, 0x00, 0x00, 0x00, 0x00, 0x00, 0x00, 0x00, 0x00,
  0x00, 0x00, 0x00, 0x00, 0x00, 0x00, 0x00, 0x00, 0x00, 0x00, 0x00, 0x00,
  0x00, 0x00, 0x00, 0x00, 0x00, 0x00, 0x00, 0x00, 0x00, 0x00, 0x00, 0x00,
  0x00, 0x00, 0x00, 0x00, 0x00, 0x00, 0x00, 0x00, 0x00, 0x00, 0x00, 0x00,
  0x00, 0x00, 0x00, 0x00, 0x00, 0x00, 0x00, 0x00, 0x00, 0x00, 0x00, 0x00,
  0x00, 0x00, 0x00, 0x00, 0x00, 0x00, 0x00, 0x00, 0x00, 0x00, 0x00, 0x00,
  0x00, 0x00, 0x00, 0x00, 0x00, 0x00, 0x00, 0x00, 0x00, 0x00, 0x00, 0x00,
  0x00, 0x00, 0x00, 0x00, 0x00, 0x00, 0x00, 0x00, 0x00, 0x00, 0x00, 0x00,
  0x00, 0x00, 0x00, 0x00, 0x00, 0x00, 0x00, 0x00, 0x00, 0x00, 0x00, 0x00,
  0x00, 0x00, 0x00, 0x00, 0x00, 0x00, 0x00, 0x00, 0x00, 0x00, 0x00, 0x00,
  0x00, 0x00, 0x00, 0x00, 0x00, 0x00, 0x00, 0x00, 0x00, 0x00, 0x00, 0x00,
  0x00, 0x00, 0x00, 0x00, 0x00, 0x00, 0x00, 0x00, 0x00, 0x00, 0x00, 0x00,
  0x00, 0x00, 0x00, 0x00, 0x00, 0x00, 0x00, 0x00, 0x00, 0x00, 0x00, 0x00,
  0x00, 0x00, 0x00, 0x00, 0x00, 0x00, 0x00, 0x00, 0x00, 0x00, 0x00, 0x00,
  0x00, 0x00, 0x00, 0x00, 0x00, 0x00, 0x00, 0x00, 0x00, 0x00, 0x00, 0x00,
  0x00, 0x00, 0x00, 0x00, 0x00, 0x00, 0x00, 0x00, 0x00, 0x00, 0x00, 0x00,
  0x00, 0x00, 0x00, 0x00, 0x20, 0x00, 0x00, 0x00, 0xd5, 0xc7, 0x12, 0x37,
  0x59, 0x0a, 0x21, 0x37, 0x87, 0xd7, 0x05, 0x37, 0x66, 0x87, 0x1f, 0x37,
  0xa9, 0x85, 0xbf, 0x36, 0x5b, 0x51, 0x1d, 0x37, 0x62, 0xea, 0x2f, 0x37,
  0x1b, 0x77, 0x49, 0x37, 0x7c, 0x04, 0x1a, 0x37, 0xb2, 0x2f, 0x98, 0x37,
  0xc4, 0x6b, 0xc0, 0x36, 0x09, 0x5f, 0x0a, 0x37, 0x72, 0x06, 0x54, 0x37,
  0xce, 0x57, 0x34, 0x37, 0x27, 0xd1, 0xcd, 0x36, 0xd8, 0xe4, 0x0b, 0x37,
  0x6d, 0x8f, 0x63, 0x37, 0x1c, 0x40, 0x0c, 0x37, 0xed, 0x55, 0x73, 0x37,
  0x1e, 0x71, 0x7c, 0x37, 0x74, 0x16, 0x57, 0x37, 0x4d, 0xef, 0x34, 0x37,
  0xa7, 0x82, 0xa7, 0x36, 0xfd, 0x42, 0x39, 0x37, 0x68, 0xe2, 0xea, 0x36,
  0x56, 0x93, 0x2e, 0x37, 0x36, 0x2b, 0x0c, 0x37, 0x05, 0xe2, 0x47, 0x37,
  0xaf, 0x21, 0xf6, 0x36, 0xb8, 0x79, 0x35, 0x37, 0x16, 0x7b, 0x57, 0x37,
  0x3d, 0xdd, 0x65, 0x37, 0x12, 0x00, 0x00, 0x00, 0x74, 0x66, 0x6c, 0x2e,
  0x70, 0x73, 0x65, 0x75, 0x64, 0x6f, 0x5f, 0x71, 0x63, 0x6f, 0x6e, 0x73,
  0x74, 0x32, 0x00, 0x00, 0x01, 0x00, 0x00, 0x00, 0x20, 0x00, 0x00, 0x00,
  0x3a, 0xfe, 0xff, 0xff, 0x00, 0x00, 0x00, 0x01, 0x14, 0x00, 0x00, 0x00,
  0x40, 0x00, 0x00, 0x00, 0x08, 0x00, 0x00, 0x00, 0x00, 0x00, 0x00, 0x09,
  0x4c, 0x00, 0x00, 0x00, 0xbc, 0xfd, 0xff, 0xff, 0x08, 0x00, 0x00, 0x00,
  0x1c, 0x00, 0x00, 0x00, 0x02, 0x00, 0x00, 0x00, 0x00, 0x00, 0x00, 0x00,
  0x00, 0x00, 0x00, 0x00, 0x00, 0x00, 0x00, 0x00, 0x00, 0x00, 0x00, 0x00,
  0x00, 0x00, 0x00, 0x00, 0x02, 0x00, 0x00, 0x00, 0xfb, 0x8e, 0x8f, 0x3b,
  0x7d, 0x06, 0x99, 0x3b, 0x12, 0x00, 0x00, 0x00, 0x74, 0x66, 0x6c, 0x2e,
  0x70, 0x73, 0x65, 0x75, 0x64, 0x6f, 0x5f, 0x71, 0x63, 0x6f, 0x6e, 0x73,
  0x74, 0x31, 0x00, 0x00, 0x02, 0x00, 0x00, 0x00, 0x02, 0x00, 0x00, 0x00,
  0x20, 0x00, 0x00, 0x00, 0xaa, 0xfe, 0xff, 0xff, 0x00, 0x00, 0x00, 0x01,
  0x14, 0x00, 0x00, 0x00, 0x3c, 0x00, 0x00, 0x00, 0x07, 0x00, 0x00, 0x00,
  0x00, 0x00, 0x00, 0x02, 0x48, 0x00, 0x00, 0x00, 0x2c, 0xfe, 0xff, 0xff,
  0x08, 0x00, 0x00, 0x00, 0x18, 0x00, 0x00, 0x00, 0x02, 0x00, 0x00, 0x00,
  0x00, 0x00, 0x00, 0x00, 0x00, 0x00, 0x00, 0x00, 0x00, 0x00, 0x00, 0x00,
  0x00, 0x00, 0x00, 0x00, 0x02, 0x00, 0x00, 0x00, 0xe0, 0x22, 0xb9, 0x37,
  0x49, 0x58, 0xc5, 0x37, 0x11, 0x00, 0x00, 0x00, 0x74, 0x66, 0x6c, 0x2e,
  0x70, 0x73, 0x65, 0x75, 0x64, 0x6f, 0x5f, 0x71, 0x63, 0x6f, 0x6e, 0x73,
  0x74, 0x00, 0x00, 0x00, 0x01, 0x00, 0x00, 0x00, 0x02, 0x00, 0x00, 0x00,
  0x12, 0xff, 0xff, 0xff, 0x00, 0x00, 0x00, 0x01, 0x14, 0x00, 0x00, 0x00,
  0x14, 0x00, 0x00, 0x00, 0x06, 0x00, 0x00, 0x00, 0x00, 0x00, 0x00, 0x02,
  0x1c, 0x00, 0x00, 0x00, 0xfc, 0xfe, 0xff, 0xff, 0x0f, 0x00, 0x00, 0x00,
  0x61, 0x72, 0x69, 0x74, 0x68, 0x2e, 0x63, 0x6f, 0x6e, 0x73, 0x74, 0x61,
  0x6e, 0x74, 0x34, 0x00, 0x01, 0x00, 0x00, 0x00, 0x03, 0x00, 0x00, 0x00,
  0x4e, 0xff, 0xff, 0xff, 0x00, 0x00, 0x00, 0x01, 0x14, 0x00, 0x00, 0x00,
  0x14, 0x00, 0x00, 0x00, 0x05, 0x00, 0x00, 0x00, 0x00, 0x00, 0x00, 0x02,
  0x1c, 0x00, 0x00, 0x00, 0x38, 0xff, 0xff, 0xff, 0x0f, 0x00, 0x00, 0x00,
  0x61, 0x72, 0x69, 0x74, 0x68, 0x2e, 0x63, 0x6f, 0x6e, 0x73, 0x74, 0x61,
  0x6e, 0x74, 0x33, 0x00, 0x01, 0x00, 0x00, 0x00, 0x03, 0x00, 0x00, 0x00,
  0x8a, 0xff, 0xff, 0xff, 0x00, 0x00, 0x00, 0x01, 0x14, 0x00, 0x00, 0x00,
  0x14, 0x00, 0x00, 0x00, 0x04, 0x00, 0x00, 0x00, 0x00, 0x00, 0x00, 0x02,
  0x1c, 0x00, 0x00, 0x00, 0x74, 0xff, 0xff, 0xff, 0x0f, 0x00, 0x00, 0x00,
  0x61, 0x72, 0x69, 0x74, 0x68, 0x2e, 0x63, 0x6f, 0x6e, 0x73, 0x74, 0x61,
  0x6e, 0x74, 0x32, 0x00, 0x00, 0x00, 0x00, 0x00, 0xc2, 0xff, 0xff, 0xff,
  0x00, 0x00, 0x00, 0x01, 0x14, 0x00, 0x00, 0x00, 0x14, 0x00, 0x00, 0x00,
  0x03, 0x00, 0x00, 0x00, 0x00, 0x00, 0x00, 0x02, 0x1c, 0x00, 0x00, 0x00,
  0xac, 0xff, 0xff, 0xff, 0x0f, 0x00, 0x00, 0x00, 0x61, 0x72, 0x69, 0x74,
  0x68, 0x2e, 0x63, 0x6f, 0x6e, 0x73, 0x74, 0x61, 0x6e, 0x74, 0x31, 0x00,
  0x01, 0x00, 0x00, 0x00, 0x03, 0x00, 0x00, 0x00, 0x00, 0x00, 0x16, 0x00,
  0x1c, 0x00, 0x18, 0x00, 0x17, 0x00, 0x10, 0x00, 0x0c, 0x00, 0x08, 0x00,
  0x00, 0x00, 0x00, 0x00, 0x00, 0x00, 0x07, 0x00, 0x16, 0x00, 0x00, 0x00,
  0x00, 0x00, 0x00, 0x01, 0x18, 0x00, 0x00, 0x00, 0x18, 0x00, 0x00, 0x00,
  0x02, 0x00, 0x00, 0x00, 0x00, 0x00, 0x00, 0x02, 0x20, 0x00, 0x00, 0x00,
  0x04, 0x00, 0x04, 0x00, 0x04, 0x00, 0x00, 0x00, 0x0e, 0x00, 0x00, 0x00,
  0x61, 0x72, 0x69, 0x74, 0x68, 0x2e, 0x63, 0x6f, 0x6e, 0x73, 0x74, 0x61,
  0x6e, 0x74, 0x00, 0x00, 0x00, 0x00, 0x00, 0x00, 0x00, 0x00, 0x16, 0x00,
  0x20, 0x00, 0x1c, 0x00, 0x1b, 0x00, 0x14, 0x00, 0x10, 0x00, 0x0c, 0x00,
  0x00, 0x00, 0x00, 0x00, 0x08, 0x00, 0x07, 0x00, 0x16, 0x00, 0x00, 0x00,
  0x00, 0x00, 0x00, 0x01, 0x18, 0x00, 0x00, 0x00, 0x30, 0x00, 0x00, 0x00,
  0x4c, 0x00, 0x00, 0x00, 0x01, 0x00, 0x00, 0x00, 0x00, 0x00, 0x00, 0x09,
  0x64, 0x00, 0x00, 0x00, 0x03, 0x00, 0x00, 0x00, 0xff, 0xff, 0xff, 0xff,
  0x19, 0x00, 0x00, 0x00, 0x0b, 0x00, 0x00, 0x00, 0x0c, 0x00, 0x0c, 0x00,
  0x00, 0x00, 0x00, 0x00, 0x08, 0x00, 0x04, 0x00, 0x0c, 0x00, 0x00, 0x00,
  0x08, 0x00, 0x00, 0x00, 0x10, 0x00, 0x00, 0x00, 0x01, 0x00, 0x00, 0x00,
  0x80, 0xff, 0xff, 0xff, 0xff, 0xff, 0xff, 0xff, 0x01, 0x00, 0x00, 0x00,
  0x28, 0x7f, 0x80, 0x3b, 0x1e, 0x00, 0x00, 0x00, 0x73, 0x65, 0x72, 0x76,
  0x69, 0x6e, 0x67, 0x5f, 0x64, 0x65, 0x66, 0x61, 0x75, 0x6c, 0x74, 0x5f,
  0x73, 0x65, 0x6e, 0x73, 0x6f, 0x72, 0x5f, 0x69, 0x6e, 0x70, 0x75, 0x74,
  0x3a, 0x30, 0x00, 0x00, 0x03, 0x00, 0x00, 0x00, 0x01, 0x00, 0x00, 0x00,
  0x19, 0x00, 0x00, 0x00, 0x0b, 0x00, 0x00, 0x00, 0x09, 0x00, 0x00, 0x00,
  0xc4, 0x00, 0x00, 0x00, 0xa4, 0x00, 0x00, 0x00, 0x88, 0x00, 0x00, 0x00,
  0x7c, 0x00, 0x00, 0x00, 0x60, 0x00, 0x00, 0x00, 0x40, 0x00, 0x00, 0x00,
  0x2c, 0x00, 0x00, 0x00, 0x18, 0x00, 0x00, 0x00, 0x04, 0x00, 0x00, 0x00,
  0x88, 0xff, 0xff, 0xff, 0x19, 0x00, 0x00, 0x00, 0x02, 0x00, 0x00, 0x00,
  0x00, 0x00, 0x00, 0x19, 0x98, 0xff, 0xff, 0xff, 0x09, 0x00, 0x00, 0x00,
  0x04, 0x00, 0x00, 0x00, 0x00, 0x00, 0x00, 0x09, 0xa8, 0xff, 0xff, 0xff,
  0x28, 0x00, 0x00, 0x00, 0x02, 0x00, 0x00, 0x00, 0x00, 0x00, 0x00, 0x28,
  0xb8, 0xff, 0xff, 0xff, 0x11, 0x00, 0x00, 0x00, 0x02, 0x00, 0x00, 0x00,
  0x00, 0x00, 0x00, 0x11, 0x0c, 0x00, 0x0e, 0x00, 0x0d, 0x00, 0x00, 0x00,
  0x08, 0x00, 0x04, 0x00, 0x0c, 0x00, 0x00, 0x00, 0x12, 0x00, 0x00, 0x00,
  0x02, 0x00, 0x00, 0x00, 0x00, 0x12, 0x0a, 0x00, 0x08, 0x00, 0x00, 0x00,
  0x00, 0x00, 0x04, 0x00, 0x0a, 0x00, 0x00, 0x00, 0x02, 0x00, 0x00, 0x00,
  0xd8, 0xff, 0xff, 0xff, 0x16, 0x00, 0x00, 0x00, 0x00, 0x00, 0x00, 0x16,
  0x0c, 0x00, 0x10, 0x00, 0x0f, 0x00, 0x00, 0x00, 0x08, 0x00, 0x04, 0x00,
  0x0c, 0x00, 0x00, 0x00, 0x03, 0x00, 0x00, 0x00, 0x03, 0x00, 0x00, 0x00,
  0x00, 0x00, 0x00, 0x03, 0x0c, 0x00, 0x0c, 0x00, 0x0b, 0x00, 0x00, 0x00,
  0x00, 0x00, 0x04, 0x00, 0x0c, 0x00, 0x00, 0x00, 0x46, 0x00, 0x00, 0x00,
  0x00, 0x00, 0x00, 0x46,
};

const int g_asl_model_data_len = 12904;